#include "dog_detect_model_data.h"

const unsigned char g_dog_detect_model_data[] = {
    32, 0, 0, 0, 84, 70, 76, 51, 0, 0, 0, 0, 20, 0, 32, 0, 28, 0, 24, 0, 20, 0, 16, 0, 12, 0, 0, 0, 8, 0, 4, 0, 20, 0, 0, 0, 28, 0, 0, 0, 140, 0, 0, 0, 12, 1, 0, 0, 48, 55, 0, 0, 64, 55, 0, 0, 124, 112, 0, 0, 3, 0, 0, 0, 1, 0, 0, 0, 4, 0, 0, 0, 98, 200, 255, 255, 12, 0, 0, 0, 28, 0, 0, 0, 60, 0, 0, 0, 15, 0, 0, 0, 115, 101, 114, 118, 105, 110, 103, 95, 100, 101, 102, 97, 117, 108, 116, 0, 1, 0, 0, 0, 4, 0, 0, 0, 104, 255, 255, 255, 33, 0, 0, 0, 4, 0, 0, 0, 8, 0, 0, 0, 111, 117, 116, 112, 117, 116, 95, 48, 0, 0, 0, 0, 1, 0, 0, 0, 4, 0, 0, 0, 90, 201, 255, 255, 4, 0, 0, 0, 13, 0, 0, 0, 105, 110, 112, 117, 116, 95, 108, 97, 121, 101, 114, 95, 52, 0, 0, 0, 3, 0, 0, 0, 92, 0, 0, 0, 44, 0, 0, 0, 4, 0, 0, 0, 184, 255, 255, 255, 37, 0, 0, 0, 4, 0, 0, 0, 19, 0, 0, 0, 67, 79, 78, 86, 69, 82, 83, 73, 79, 78, 95, 77, 69, 84, 65, 68, 65, 84, 65, 0, 220, 255, 255, 255, 36, 0, 0, 0, 4, 0, 0, 0, 19, 0, 0, 0, 109, 105, 110, 95, 114, 117, 110, 116, 105, 109, 101, 95, 118, 101, 114, 115, 105, 111, 110, 0, 8, 0, 12, 0, 8, 0, 4, 0, 8, 0, 0, 0, 35, 0, 0, 0, 4, 0, 0, 0, 19, 0, 0, 0, 109, 105, 110, 95, 114, 117, 110, 116, 105, 109, 101, 95, 118, 101, 114, 115, 105, 111, 110, 0, 38, 0, 0, 0, 32, 54, 0, 0, 24, 54, 0, 0, 0, 54, 0, 0, 228, 53, 0, 0, 84, 53, 0, 0, 68, 51, 0, 0, 52, 19, 0, 0, 36, 18, 0, 0, 20, 10, 0, 0, 132, 9, 0, 0, 84, 8, 0, 0, 196, 7, 0, 0, 148, 6, 0, 0, 4, 6, 0, 0, 244, 3, 0, 0, 164, 3, 0, 0, 4, 3, 0, 0, 180, 2, 0, 0, 36, 2, 0, 0, 244, 1, 0, 0, 156, 1, 0, 0, 108, 1, 0, 0, 20, 1, 0, 0, 12, 1, 0, 0, 4, 1, 0, 0, 252, 0, 0, 0, 244, 0, 0, 0, 236, 0, 0, 0, 228, 0, 0, 0, 220, 0, 0, 0, 212, 0, 0, 0, 204, 0, 0, 0, 196, 0, 0, 0, 188, 0, 0, 0, 180, 0, 0, 0, 148, 0, 0, 0, 116, 0, 0, 0, 4, 0, 0, 0, 150, 202, 255, 255, 4, 0, 0, 0, 96, 0, 0, 0, 12, 0, 0, 0, 8, 0, 14, 0, 8, 0, 4, 0, 8, 0, 0, 0, 16, 0, 0, 0, 40, 0, 0, 0, 0, 0, 6, 0, 8, 0, 4, 0, 6, 0, 0, 0, 4, 0, 0, 0, 1, 0, 0, 0, 235, 3, 0, 0, 12, 0, 24, 0, 20, 0, 16, 0, 12, 0, 4, 0, 12, 0, 0, 0, 202, 23, 219, 97, 160, 114, 19, 86, 2, 0, 0, 0, 2, 0, 0, 0, 4, 0, 0, 0, 6, 0, 0, 0, 50, 46, 49, 57, 46, 48, 0, 0, 2, 203, 255, 255, 4, 0, 0, 0, 16, 0, 0, 0, 0, 0, 0, 0, 0, 0, 0, 0, 0, 0, 0, 0, 0, 0, 0, 0, 30, 203, 255, 255, 4, 0, 0, 0, 16, 0, 0, 0, 49, 46, 49, 52, 46, 48, 0, 0, 0, 0, 0, 0, 0, 0, 0, 0, 156, 146, 255, 255, 160, 146, 255, 255, 164, 146, 255, 255, 168, 146, 255, 255, 172, 146, 255, 255, 176, 146, 255, 255, 180, 146, 255, 255, 184, 146, 255, 255, 188, 146, 255, 255, 192, 146, 255, 255, 196, 146, 255, 255, 200, 146, 255, 255, 106, 203, 255, 255, 4, 0, 0, 0, 72, 0, 0, 0, 232, 206, 12, 127, 95, 106, 189, 184, 13, 5, 162, 80, 129, 220, 3, 239, 223, 229, 36, 127, 231, 182, 190, 5, 202, 46, 19, 137, 225, 78, 211, 253, 191, 118, 127, 201, 116, 21, 21, 143, 80, 127, 214, 141, 248, 49, 214, 207, 36, 232, 201, 77, 197, 129, 127, 237, 247, 30, 230, 202, 210, 212, 168, 5, 213, 22, 4, 51, 238, 228, 127, 252, 190, 203, 255, 255, 4, 0, 0, 0, 32, 0, 0, 0, 169, 172, 255, 255, 241, 118, 0, 0, 22, 252, 255, 255, 74, 8, 0, 0, 131, 217, 255, 255, 119, 115, 0, 0, 199, 51, 0, 0, 133, 210, 255, 255, 234, 203, 255, 255, 4, 0, 0, 0, 72, 0, 0, 0, 231, 38, 250, 34, 11, 238, 214, 240, 199, 94, 3, 58, 46, 127, 16, 204, 185, 239, 26, 35, 29, 77, 42, 223, 11, 66, 25, 194, 183, 142, 180, 63, 210, 2, 176, 190, 65, 1, 127, 72, 156, 48, 129, 190, 66, 227, 36, 129, 129, 129, 253, 129, 18, 121, 184, 57, 123, 242, 76, 194, 129, 28, 247, 40, 87, 185, 60, 212, 242, 135, 46, 252, 62, 204, 255, 255, 4, 0, 0, 0, 32, 0, 0, 0, 107, 3, 0, 0, 60, 255, 255, 255, 53, 0, 0, 0, 191, 11, 0, 0, 12, 255, 255, 255, 180, 252, 255, 255, 175, 254, 255, 255, 158, 254, 255, 255, 106, 204, 255, 255, 4, 0, 0, 0, 128, 0, 0, 0, 5, 214, 231, 5, 23, 201, 127, 222, 155, 132, 157, 127, 197, 43, 0, 239, 69, 129, 77, 172, 221, 81, 132, 222, 238, 56, 242, 220, 194, 207, 52, 127, 229, 195, 52, 54, 150, 129, 115, 216, 245, 142, 111, 227, 82, 247, 2, 127, 251, 202, 13, 127, 237, 250, 242, 222, 198, 1, 42, 246, 228, 8, 127, 255, 203, 129, 239, 6, 25, 28, 98, 105, 195, 154, 184, 255, 50, 43, 199, 127, 194, 151, 229, 237, 9, 105, 94, 129, 114, 129, 97, 117, 207, 247, 249, 233, 195, 191, 127, 22, 234, 249, 234, 8, 31, 42, 187, 222, 251, 164, 127, 225, 244, 101, 165, 239, 49, 127, 34, 243, 212, 83, 239, 127, 41, 244, 131, 36, 246, 204, 255, 255, 4, 0, 0, 0, 64, 0, 0, 0, 36, 252, 255, 255, 247, 3, 0, 0, 83, 0, 0, 0, 20, 0, 0, 0, 151, 2, 0, 0, 183, 255, 255, 255, 75, 253, 255, 255, 80, 253, 255, 255, 1, 253, 255, 255, 114, 6, 0, 0, 211, 2, 0, 0, 151, 254, 255, 255, 238, 0, 0, 0, 246, 254, 255, 255, 73, 247, 255, 255, 162, 3, 0, 0, 66, 205, 255, 255, 4, 0, 0, 0, 144, 0, 0, 0, 137, 243, 42, 150, 8, 169, 39, 60, 223, 129, 17, 30, 104, 196, 50, 21, 166, 255, 163, 3, 127, 40, 7, 48, 70, 8, 3, 42, 84, 129, 92, 8, 44, 61, 45, 236, 96, 254, 2, 230, 127, 183, 35, 129, 217, 146, 77, 113, 237, 255, 109, 129, 205, 129, 127, 127, 165, 249, 193, 232, 54, 10, 214, 221, 56, 129, 21, 208, 173, 224, 83, 81, 253, 237, 94, 187, 87, 3, 127, 56, 208, 172, 211, 225, 187, 30, 31, 172, 127, 20, 222, 123, 3, 102, 102, 113, 127, 11, 251, 137, 14, 201, 100, 64, 52, 75, 174, 8, 180, 150, 6, 194, 100, 32, 127, 232, 23, 205, 103, 12, 93, 32, 127, 236, 129, 72, 50, 127, 186, 23, 94, 17, 213, 167, 127, 192, 103, 103, 149, 248, 210, 80, 8, 114, 222, 205, 255, 255, 4, 0, 0, 0, 64, 0, 0, 0, 177, 0, 0, 0, 3, 2, 0, 0, 179, 254, 255, 255, 84, 15, 0, 0, 171, 255, 255, 255, 119, 5, 0, 0, 253, 246, 255, 255, 19, 252, 255, 255, 153, 252, 255, 255, 20, 0, 0, 0, 214, 254, 255, 255, 231, 0, 0, 0, 57, 1, 0, 0, 84, 2, 0, 0, 218, 248, 255, 255, 245, 247, 255, 255, 42, 206, 255, 255, 4, 0, 0, 0, 0, 2, 0, 0, 213, 25, 215, 99, 127, 254, 55, 13, 217, 161, 179, 182, 55, 181, 58, 79, 180, 221, 221, 89, 220, 94, 239, 115, 127, 62, 46, 251, 191, 66, 55, 67, 24, 212, 129, 21, 31, 71, 85, 40, 20, 217, 8, 165, 198, 22, 0, 54, 225, 134, 194, 252, 7, 235, 29, 231, 129, 50, 14, 122, 19, 7, 213, 252, 241, 193, 218, 223, 184, 204, 129, 43, 27, 239, 209, 221, 218, 211, 252, 37, 206, 253, 246, 255, 224, 255, 127, 115, 90, 249, 32, 15, 84, 22, 171, 215, 201, 64, 245, 86, 116, 178, 252, 106, 3, 19, 230, 197, 199, 9, 129, 221, 127, 1, 84, 208, 27, 18, 17, 212, 169, 82, 77, 37, 32, 187, 53, 158, 169, 157, 253, 173, 39, 193, 255, 204, 76, 75, 135, 227, 46, 27, 83, 127, 217, 129, 9, 39, 232, 57, 200, 18, 250, 235, 7, 250, 246, 34, 224, 41, 221, 246, 29, 60, 59, 69, 248, 23, 247, 241, 70, 245, 23, 29, 56, 129, 11, 35, 6, 169, 221, 64, 224, 117, 74, 10, 24, 1, 223, 0, 129, 252, 4, 26, 41, 129, 52, 25, 234, 75, 44, 212, 30, 255, 228, 20, 213, 227, 104, 255, 246, 213, 4, 89, 55, 28, 54, 25, 234, 254, 48, 215, 127, 251, 35, 249, 226, 42, 215, 218, 33, 168, 129, 246, 104, 240, 5, 227, 53, 228, 96, 88, 79, 199, 58, 47, 39, 40, 3, 13, 72, 49, 251, 150, 201, 129, 192, 129, 244, 32, 207, 244, 232, 226, 251, 91, 17, 16, 246, 208, 227, 4, 248, 192, 239, 219, 181, 244, 193, 27, 72, 217, 233, 231, 54, 127, 234, 238, 46, 7, 23, 67, 250, 95, 174, 56, 8, 99, 77, 213, 167, 129, 67, 17, 4, 247, 236, 127, 79, 241, 196, 59, 229, 255, 3, 221, 131, 28, 152, 151, 165, 4, 44, 127, 31, 237, 9, 254, 50, 175, 36, 41, 28, 77, 82, 183, 99, 253, 231, 30, 252, 50, 190, 214, 220, 31, 3, 197, 183, 127, 255, 22, 10, 20, 195, 172, 253, 28, 53, 243, 228, 144, 129, 19, 46, 99, 235, 18, 113, 12, 173, 234, 5, 245, 7, 216, 200, 4, 22, 253, 234, 63, 131, 127, 35, 5, 245, 35, 152, 16, 250, 38, 127, 181, 0, 1, 9, 250, 54, 252, 91, 92, 155, 171, 186, 218, 16, 127, 196, 54, 197, 22, 74, 57, 162, 108, 15, 23, 9, 153, 48, 32, 2, 104, 55, 127, 224, 213, 230, 220, 242, 221, 253, 26, 26, 183, 113, 72, 204, 239, 121, 36, 90, 208, 209, 237, 127, 73, 131, 151, 172, 23, 206, 238, 144, 208, 156, 13, 184, 127, 34, 191, 114, 110, 180, 45, 196, 246, 206, 216, 26, 55, 212, 246, 56, 184, 81, 241, 129, 254, 222, 240, 124, 222, 179, 36, 48, 49, 127, 89, 61, 234, 188, 180, 242, 229, 27, 175, 165, 88, 155, 28, 25, 57, 25, 209, 79, 228, 245, 80, 140, 129, 54, 208, 255, 255, 4, 0, 0, 0, 128, 0, 0, 0, 74, 255, 255, 255, 158, 246, 255, 255, 26, 2, 0, 0, 79, 5, 0, 0, 168, 9, 0, 0, 32, 252, 255, 255, 73, 254, 255, 255, 165, 252, 255, 255, 156, 1, 0, 0, 233, 1, 0, 0, 132, 254, 255, 255, 24, 0, 0, 0, 17, 4, 0, 0, 40, 251, 255, 255, 170, 2, 0, 0, 171, 255, 255, 255, 164, 7, 0, 0, 20, 0, 0, 0, 94, 17, 0, 0, 168, 12, 0, 0, 135, 252, 255, 255, 192, 247, 255, 255, 156, 2, 0, 0, 66, 249, 255, 255, 126, 253, 255, 255, 19, 251, 255, 255, 179, 254, 255, 255, 188, 248, 255, 255, 72, 1, 0, 0, 107, 3, 0, 0, 178, 254, 255, 255, 77, 5, 0, 0, 194, 208, 255, 255, 4, 0, 0, 0, 32, 1, 0, 0, 25, 250, 17, 127, 222, 23, 122, 55, 56, 252, 226, 194, 132, 121, 129, 195, 248, 252, 127, 117, 253, 252, 243, 16, 90, 179, 127, 87, 246, 228, 127, 129, 127, 21, 38, 71, 11, 26, 132, 112, 33, 195, 227, 38, 129, 249, 220, 49, 144, 202, 32, 55, 23, 182, 151, 215, 161, 15, 61, 63, 23, 177, 72, 19, 153, 129, 28, 249, 144, 27, 34, 213, 127, 6, 129, 39, 237, 129, 208, 48, 249, 153, 6, 236, 238, 175, 208, 96, 254, 238, 154, 54, 74, 12, 184, 255, 76, 181, 214, 178, 129, 222, 227, 47, 73, 129, 32, 184, 183, 55, 41, 241, 168, 181, 216, 210, 0, 8, 54, 129, 156, 220, 77, 253, 221, 5, 230, 244, 246, 0, 79, 176, 41, 39, 127, 127, 177, 224, 228, 182, 35, 16, 208, 211, 129, 221, 243, 110, 187, 127, 232, 5, 178, 166, 54, 33, 76, 127, 11, 122, 17, 39, 105, 230, 51, 175, 58, 33, 196, 61, 66, 129, 43, 206, 1, 127, 173, 35, 239, 244, 178, 11, 250, 64, 38, 45, 15, 127, 64, 226, 197, 36, 183, 48, 221, 29, 239, 30, 194, 45, 244, 91, 105, 62, 189, 50, 78, 250, 222, 77, 48, 57, 129, 201, 129, 14, 127, 127, 42, 184, 202, 246, 75, 224, 205, 75, 228, 51, 11, 197, 3, 99, 66, 12, 245, 49, 1, 30, 118, 28, 152, 129, 78, 211, 58, 107, 229, 59, 229, 18, 217, 220, 252, 253, 80, 33, 8, 91, 127, 16, 27, 127, 219, 250, 194, 75, 23, 36, 60, 48, 89, 72, 213, 9, 250, 127, 142, 182, 181, 18, 87, 3, 66, 2, 127, 21, 4, 159, 238, 209, 255, 255, 4, 0, 0, 0, 128, 0, 0, 0, 95, 0, 0, 0, 81, 255, 255, 255, 155, 246, 255, 255, 17, 254, 255, 255, 108, 8, 0, 0, 175, 254, 255, 255, 84, 255, 255, 255, 254, 248, 255, 255, 81, 253, 255, 255, 137, 0, 0, 0, 246, 1, 0, 0, 63, 255, 255, 255, 82, 255, 255, 255, 206, 252, 255, 255, 37, 253, 255, 255, 192, 250, 255, 255, 95, 16, 0, 0, 20, 1, 0, 0, 63, 251, 255, 255, 184, 242, 255, 255, 21, 11, 0, 0, 231, 255, 255, 255, 106, 11, 0, 0, 25, 254, 255, 255, 107, 254, 255, 255, 164, 252, 255, 255, 132, 249, 255, 255, 227, 251, 255, 255, 158, 253, 255, 255, 14, 255, 255, 255, 172, 250, 255, 255, 135, 1, 0, 0, 122, 210, 255, 255, 4, 0, 0, 0, 32, 1, 0, 0, 132, 39, 40, 129, 247, 182, 61, 108, 196, 129, 204, 75, 192, 55, 127, 205, 85, 183, 100, 100, 189, 31, 137, 71, 89, 232, 224, 10, 221, 117, 190, 129, 129, 205, 13, 222, 233, 127, 127, 27, 129, 29, 15, 88, 129, 54, 3, 212, 94, 148, 27, 16, 73, 12, 233, 127, 220, 172, 177, 26, 143, 204, 212, 30, 219, 162, 43, 203, 32, 173, 46, 218, 221, 207, 144, 51, 179, 52, 101, 211, 16, 217, 39, 8, 76, 244, 7, 86, 225, 129, 129, 66, 133, 89, 219, 142, 220, 99, 11, 229, 176, 54, 89, 54, 205, 25, 188, 66, 101, 68, 54, 220, 190, 14, 127, 30, 24, 206, 112, 38, 129, 57, 223, 44, 226, 129, 129, 236, 240, 158, 59, 160, 156, 144, 191, 81, 204, 28, 109, 127, 81, 57, 10, 231, 18, 77, 41, 246, 25, 184, 26, 67, 139, 2, 245, 11, 253, 83, 191, 13, 7, 135, 41, 197, 129, 91, 7, 227, 185, 7, 145, 123, 218, 136, 84, 243, 129, 30, 81, 195, 12, 206, 7, 74, 17, 3, 241, 66, 251, 50, 191, 202, 2, 129, 21, 231, 149, 173, 216, 74, 14, 63, 208, 119, 96, 163, 30, 225, 28, 68, 82, 127, 31, 127, 129, 250, 140, 52, 6, 243, 101, 9, 29, 86, 21, 179, 127, 252, 186, 221, 24, 127, 42, 225, 246, 99, 61, 234, 28, 170, 59, 127, 22, 37, 127, 22, 98, 30, 192, 9, 201, 210, 127, 125, 1, 77, 19, 150, 92, 250, 190, 171, 28, 247, 239, 67, 129, 74, 13, 129, 65, 129, 201, 59, 32, 206, 98, 72, 39, 26, 150, 135, 234, 129, 54, 12, 240, 12, 166, 211, 255, 255, 4, 0, 0, 0, 128, 0, 0, 0, 44, 6, 0, 0, 27, 8, 0, 0, 59, 247, 255, 255, 131, 8, 0, 0, 167, 11, 0, 0, 138, 0, 0, 0, 100, 254, 255, 255, 172, 247, 255, 255, 223, 9, 0, 0, 47, 0, 0, 0, 8, 5, 0, 0, 198, 253, 255, 255, 29, 0, 0, 0, 47, 255, 255, 255, 129, 247, 255, 255, 48, 13, 0, 0, 33, 255, 255, 255, 0, 0, 0, 0, 50, 241, 255, 255, 232, 250, 255, 255, 31, 251, 255, 255, 18, 255, 255, 255, 185, 254, 255, 255, 42, 252, 255, 255, 86, 6, 0, 0, 229, 1, 0, 0, 217, 7, 0, 0, 123, 254, 255, 255, 133, 255, 255, 255, 228, 250, 255, 255, 61, 8, 0, 0, 219, 1, 0, 0, 50, 212, 255, 255, 4, 0, 0, 0, 0, 8, 0, 0, 212, 157, 135, 174, 237, 9, 252, 240, 135, 8, 9, 70, 19, 203, 212, 41, 225, 106, 127, 0, 48, 127, 33, 67, 143, 252, 42, 31, 215, 246, 46, 87, 182, 6, 5, 254, 170, 19, 177, 101, 33, 253, 78, 233, 14, 44, 29, 179, 127, 250, 222, 219, 240, 243, 161, 251, 201, 199, 14, 34, 216, 26, 251, 14, 114, 10, 220, 75, 127, 41, 206, 24, 245, 193, 48, 244, 237, 2, 173, 228, 153, 2, 8, 237, 55, 234, 198, 6, 10, 240, 222, 222, 55, 227, 233, 228, 66, 27, 5, 35, 36, 1, 246, 33, 244, 227, 33, 251, 185, 18, 195, 129, 222, 17, 205, 202, 29, 3, 199, 28, 10, 13, 204, 231, 65, 210, 225, 225, 59, 129, 125, 119, 96, 235, 145, 247, 225, 221, 243, 244, 29, 74, 165, 15, 155, 235, 13, 153, 188, 217, 214, 14, 237, 44, 221, 71, 78, 215, 180, 168, 97, 122, 219, 68, 127, 41, 207, 37, 14, 216, 33, 37, 225, 178, 137, 50, 175, 192, 83, 250, 122, 254, 186, 198, 53, 10, 225, 181, 20, 225, 6, 43, 77, 250, 245, 50, 79, 7, 248, 23, 18, 195, 13, 243, 183, 80, 209, 162, 210, 0, 188, 199, 7, 9, 181, 62, 35, 26, 189, 29, 81, 199, 129, 236, 12, 223, 54, 5, 237, 127, 32, 209, 206, 73, 2, 253, 100, 176, 223, 4, 198, 36, 10, 231, 209, 15, 251, 33, 201, 217, 59, 131, 222, 38, 33, 226, 57, 209, 168, 202, 253, 218, 205, 224, 245, 2, 217, 60, 198, 207, 219, 49, 236, 13, 87, 127, 62, 25, 13, 44, 14, 11, 242, 203, 228, 2, 71, 43, 26, 24, 30, 127, 74, 255, 251, 6, 15, 206, 53, 71, 233, 163, 4, 203, 224, 58, 80, 129, 21, 20, 171, 166, 244, 59, 197, 201, 104, 221, 205, 233, 54, 191, 38, 253, 229, 52, 43, 254, 187, 77, 246, 28, 110, 148, 213, 22, 235, 27, 38, 48, 249, 5, 54, 73, 195, 225, 35, 129, 203, 13, 44, 17, 245, 211, 127, 233, 246, 249, 218, 23, 254, 44, 243, 23, 202, 59, 218, 31, 217, 228, 231, 224, 237, 239, 33, 248, 47, 235, 255, 73, 198, 245, 25, 242, 17, 13, 65, 197, 23, 239, 227, 39, 203, 225, 222, 227, 175, 127, 206, 152, 244, 17, 172, 192, 237, 241, 238, 80, 60, 43, 167, 37, 39, 251, 230, 217, 86, 53, 221, 85, 111, 58, 199, 248, 58, 178, 22, 240, 253, 193, 136, 7, 173, 209, 88, 252, 127, 215, 179, 240, 39, 233, 3, 193, 43, 227, 200, 19, 31, 154, 9, 233, 9, 71, 53, 250, 129, 78, 24, 18, 57, 176, 208, 8, 213, 40, 70, 2, 235, 248, 60, 36, 218, 244, 11, 136, 227, 5, 18, 34, 242, 13, 44, 11, 203, 127, 20, 39, 19, 68, 31, 184, 74, 179, 237, 20, 241, 231, 182, 208, 164, 26, 22, 198, 189, 153, 64, 213, 59, 70, 221, 215, 236, 236, 195, 33, 154, 18, 221, 101, 55, 250, 34, 14, 241, 62, 127, 166, 62, 8, 243, 197, 242, 37, 183, 3, 239, 234, 10, 41, 182, 34, 16, 11, 21, 222, 25, 49, 222, 93, 21, 254, 202, 31, 235, 25, 45, 170, 216, 26, 239, 8, 251, 25, 233, 44, 250, 53, 247, 228, 34, 129, 217, 65, 60, 1, 213, 129, 182, 217, 215, 68, 44, 252, 181, 99, 17, 76, 32, 219, 192, 0, 245, 15, 84, 72, 233, 249, 89, 62, 169, 201, 22, 158, 232, 29, 236, 28, 59, 245, 79, 3, 57, 254, 233, 91, 206, 199, 240, 44, 157, 57, 202, 129, 204, 32, 156, 175, 219, 18, 227, 2, 80, 55, 188, 79, 72, 215, 224, 192, 55, 213, 83, 44, 23, 11, 192, 127, 223, 255, 240, 46, 146, 102, 215, 249, 181, 36, 164, 164, 172, 39, 245, 11, 62, 52, 204, 91, 17, 204, 3, 187, 1, 129, 199, 185, 219, 9, 22, 211, 164, 22, 19, 44, 231, 222, 238, 246, 236, 23, 87, 18, 23, 24, 31, 51, 195, 246, 16, 213, 224, 8, 13, 30, 48, 222, 73, 67, 47, 6, 202, 90, 53, 215, 206, 127, 130, 102, 221, 229, 206, 254, 220, 137, 161, 58, 194, 209, 74, 38, 233, 51, 61, 200, 177, 190, 220, 199, 202, 192, 245, 236, 7, 181, 208, 24, 12, 37, 243, 223, 253, 12, 8, 87, 93, 252, 54, 11, 8, 101, 129, 222, 69, 34, 218, 207, 50, 40, 1, 183, 186, 198, 248, 235, 1, 232, 164, 16, 14, 46, 3, 223, 234, 8, 244, 47, 127, 237, 32, 39, 33, 46, 197, 251, 10, 16, 217, 238, 50, 33, 247, 129, 192, 235, 243, 52, 34, 242, 167, 37, 13, 36, 8, 215, 212, 247, 242, 31, 74, 13, 231, 43, 40, 44, 234, 229, 24, 179, 228, 77, 229, 20, 250, 185, 186, 208, 245, 241, 0, 187, 163, 26, 27, 52, 240, 223, 16, 14, 7, 95, 127, 248, 54, 54, 13, 93, 137, 220, 74, 37, 218, 229, 47, 36, 221, 255, 26, 216, 236, 46, 2, 174, 200, 56, 20, 217, 42, 6, 188, 129, 249, 240, 250, 197, 212, 214, 249, 212, 27, 202, 64, 233, 65, 234, 14, 194, 239, 74, 60, 185, 231, 250, 4, 248, 244, 14, 241, 227, 231, 6, 218, 129, 10, 5, 0, 245, 16, 225, 253, 9, 55, 246, 12, 231, 29, 1, 200, 7, 42, 37, 7, 28, 22, 243, 254, 24, 56, 216, 20, 34, 195, 236, 214, 129, 235, 17, 215, 206, 4, 18, 212, 231, 251, 38, 229, 237, 58, 204, 178, 235, 2, 129, 202, 215, 210, 26, 254, 17, 176, 30, 45, 36, 1, 213, 228, 232, 3, 22, 77, 44, 12, 15, 40, 53, 199, 247, 25, 238, 227, 29, 33, 44, 43, 1, 17, 24, 83, 17, 231, 116, 25, 240, 22, 127, 144, 97, 217, 17, 200, 34, 197, 43, 254, 85, 221, 200, 75, 38, 1, 53, 242, 196, 225, 243, 123, 170, 213, 107, 106, 35, 194, 186, 159, 229, 225, 181, 34, 56, 254, 204, 164, 207, 241, 129, 153, 185, 221, 31, 202, 17, 204, 61, 35, 218, 51, 241, 29, 70, 223, 35, 117, 22, 226, 22, 52, 213, 10, 4, 231, 208, 152, 48, 186, 187, 44, 247, 127, 9, 244, 226, 15, 3, 239, 200, 255, 234, 28, 41, 240, 244, 57, 7, 220, 101, 22, 71, 11, 77, 60, 161, 127, 142, 230, 238, 241, 203, 168, 183, 133, 20, 9, 194, 251, 144, 122, 181, 42, 67, 201, 190, 11, 13, 9, 188, 242, 10, 251, 83, 214, 234, 241, 214, 159, 119, 20, 164, 28, 5, 141, 239, 233, 251, 5, 127, 72, 1, 160, 57, 24, 16, 195, 208, 3, 216, 103, 214, 239, 215, 177, 14, 191, 8, 2, 172, 186, 127, 171, 149, 188, 237, 210, 176, 217, 193, 236, 77, 50, 32, 205, 40, 71, 223, 18, 212, 220, 209, 239, 22, 187, 19, 0, 41, 55, 232, 237, 79, 211, 93, 127, 180, 15, 16, 201, 251, 172, 59, 230, 221, 30, 73, 241, 60, 222, 236, 9, 12, 33, 148, 37, 3, 213, 22, 33, 245, 169, 63, 8, 50, 48, 154, 226, 46, 247, 249, 33, 35, 246, 25, 17, 92, 168, 193, 99, 129, 203, 42, 37, 11, 167, 9, 0, 207, 235, 212, 208, 161, 205, 1, 49, 67, 215, 0, 12, 24, 90, 48, 91, 20, 77, 77, 228, 125, 143, 207, 127, 55, 255, 162, 115, 34, 0, 0, 33, 4, 219, 2, 181, 93, 40, 254, 76, 36, 9, 22, 66, 4, 104, 18, 14, 22, 46, 37, 209, 83, 199, 241, 97, 57, 8, 8, 127, 66, 247, 64, 7, 186, 247, 247, 255, 228, 253, 13, 248, 221, 243, 30, 236, 129, 253, 9, 246, 16, 28, 200, 12, 17, 57, 246, 8, 231, 12, 17, 210, 21, 191, 237, 245, 207, 227, 57, 212, 22, 178, 240, 69, 38, 64, 211, 235, 82, 43, 74, 54, 23, 67, 9, 32, 127, 157, 248, 84, 41, 224, 250, 99, 102, 50, 197, 127, 69, 95, 241, 183, 8, 203, 249, 242, 235, 189, 216, 198, 213, 241, 226, 249, 134, 215, 255, 208, 19, 203, 29, 250, 252, 40, 208, 247, 226, 217, 209, 201, 167, 254, 225, 6, 189, 146, 9, 39, 67, 248, 188, 219, 23, 6, 120, 127, 252, 39, 13, 18, 116, 153, 237, 64, 38, 217, 192, 63, 56, 119, 4, 20, 82, 101, 2, 209, 26, 0, 203, 15, 23, 166, 30, 203, 159, 179, 24, 129, 154, 198, 28, 212, 44, 243, 16, 167, 75, 74, 197, 174, 232, 65, 248, 19, 70, 127, 11, 239, 87, 40, 245, 36, 111, 175, 212, 180, 13, 194, 9, 222, 254, 24, 65, 224, 182, 27, 17, 238, 55, 12, 203, 224, 241, 244, 170, 145, 182, 236, 1, 16, 203, 139, 0, 1, 96, 196, 206, 226, 20, 242, 58, 105, 233, 58, 235, 48, 97, 129, 12, 51, 22, 216, 238, 23, 84, 221, 197, 129, 172, 212, 217, 237, 201, 164, 224, 28, 111, 195, 245, 3, 1, 35, 68, 117, 0, 80, 87, 255, 97, 174, 242, 32, 51, 211, 229, 62, 60, 7, 239, 26, 227, 244, 5, 22, 248, 204, 24, 222, 68, 88, 155, 212, 26, 5, 47, 49, 63, 29, 18, 47, 125, 228, 228, 42, 129, 228, 235, 71, 38, 53, 206, 231, 105, 56, 44, 223, 156, 230, 7, 19, 221, 127, 16, 253, 219, 149, 25, 24, 169, 212, 201, 194, 244, 227, 34, 229, 214, 85, 222, 16, 235, 51, 156, 0, 225, 16, 65, 38, 245, 138, 64, 233, 50, 70, 189, 235, 15, 218, 45, 102, 251, 250, 6, 65, 47, 228, 251, 15, 129, 220, 5, 38, 32, 4, 195, 127, 240, 5, 247, 195, 32, 8, 20, 229, 55, 201, 108, 191, 20, 221, 236, 197, 184, 180, 253, 2, 239, 49, 15, 237, 111, 32, 233, 3, 254, 3, 158, 185, 29, 224, 66, 35, 247, 134, 40, 12, 52, 4, 199, 214, 4, 236, 23, 48, 49, 227, 7, 52, 65, 189, 217, 59, 154, 231, 127, 5, 16, 199, 242, 129, 190, 226, 187, 227, 3, 142, 225, 34, 121, 237, 14, 22, 27, 46, 80, 95, 254, 95, 62, 227, 101, 189, 218, 59, 55, 214, 230, 81, 89, 43, 228, 2, 244, 25, 12, 246, 243, 249, 31, 187, 155, 202, 115, 223, 18, 194, 175, 215, 11, 176, 212, 14, 127, 58, 248, 230, 104, 9, 18, 26, 26, 61, 10, 114, 73, 74, 2, 198, 57, 215, 249, 223, 15, 170, 59, 187, 6, 181, 215, 96, 183, 208, 4, 203, 253, 69, 206, 182, 127, 87, 6, 136, 255, 239, 40, 247, 60, 225, 127, 4, 210, 0, 48, 230, 174, 67, 149, 2, 78, 255, 241, 152, 192, 238, 82, 237, 171, 225, 216, 10, 174, 6, 73, 23, 196, 197, 206, 214, 160, 248, 86, 220, 39, 213, 7, 97, 249, 106, 250, 218, 108, 107, 62, 51, 5, 73, 51, 36, 124, 130, 207, 91, 51, 240, 16, 82, 127, 21, 51, 248, 10, 112, 234, 235, 10, 41, 230, 14, 252, 19, 236, 129, 57, 192, 205, 67, 75, 95, 219, 8, 229, 44, 11, 18, 212, 251, 244, 244, 50, 205, 243, 206, 225, 244, 196, 220, 61, 194, 210, 78, 70, 37, 1, 230, 81, 99, 43, 70, 243, 78, 243, 237, 127, 196, 221, 95, 50, 205, 206, 118, 124, 219, 184, 7, 202, 212, 104, 233, 33, 168, 36, 58, 16, 35, 180, 218, 9, 12, 56, 70, 34, 32, 26, 49, 72, 129, 9, 86, 14, 229, 244, 59, 59, 21, 234, 25, 220, 214, 8, 220, 253, 231, 1, 218, 235, 230, 127, 238, 221, 19, 230, 202, 241, 201, 238, 11, 66, 44, 26, 195, 91, 244, 255, 9, 15, 242, 41, 254, 169, 220, 7, 0, 184, 209, 253, 246, 197, 28, 251, 208, 129, 3, 253, 185, 243, 2, 186, 217, 22, 19, 235, 54, 19, 33, 254, 242, 251, 62, 220, 255, 255, 4, 0, 0, 0, 0, 1, 0, 0, 193, 252, 255, 255, 225, 5, 0, 0, 219, 255, 255, 255, 179, 6, 0, 0, 167, 7, 0, 0, 81, 245, 255, 255, 184, 7, 0, 0, 212, 255, 255, 255, 239, 248, 255, 255, 54, 253, 255, 255, 116, 248, 255, 255, 95, 254, 255, 255, 22, 9, 0, 0, 239, 248, 255, 255, 89, 255, 255, 255, 59, 5, 0, 0, 242, 254, 255, 255, 217, 250, 255, 255, 8, 3, 0, 0, 120, 7, 0, 0, 42, 1, 0, 0, 163, 5, 0, 0, 235, 2, 0, 0, 157, 253, 255, 255, 253, 254, 255, 255, 21, 4, 0, 0, 213, 251, 255, 255, 252, 11, 0, 0, 172, 5, 0, 0, 26, 6, 0, 0, 171, 1, 0, 0, 18, 247, 255, 255, 7, 11, 0, 0, 162, 247, 255, 255, 145, 6, 0, 0, 34, 8, 0, 0, 169, 14, 0, 0, 52, 253, 255, 255, 85, 253, 255, 255, 247, 246, 255, 255, 206, 235, 255, 255, 191, 2, 0, 0, 150, 241, 255, 255, 18, 8, 0, 0, 232, 250, 255, 255, 179, 8, 0, 0, 90, 248, 255, 255, 202, 255, 255, 255, 112, 253, 255, 255, 228, 238, 255, 255, 237, 1, 0, 0, 88, 249, 255, 255, 141, 0, 0, 0, 194, 0, 0, 0, 219, 246, 255, 255, 223, 251, 255, 255, 146, 255, 255, 255, 115, 3, 0, 0, 169, 239, 255, 255, 33, 244, 255, 255, 28, 240, 255, 255, 252, 250, 255, 255, 34, 3, 0, 0, 220, 10, 0, 0, 74, 221, 255, 255, 4, 0, 0, 0, 0, 32, 0, 0, 0, 0, 0, 0, 0, 0, 0, 0, 0, 0, 0, 0, 0, 0, 0, 0, 0, 0, 0, 0, 0, 0, 0, 0, 0, 0, 0, 0, 0, 0, 0, 0, 0, 0, 0, 0, 0, 0, 0, 0, 0, 0, 0, 0, 0, 0, 0, 0, 0, 0, 0, 0, 0, 0, 0, 0, 0, 0, 0, 0, 0, 0, 0, 0, 180, 203, 47, 90, 81, 67, 70, 38, 222, 31, 240, 15, 87, 17, 249, 13, 162, 12, 187, 244, 14, 211, 69, 170, 166, 174, 194, 57, 48, 67, 148, 225, 10, 27, 17, 22, 58, 239, 217, 146, 129, 28, 235, 48, 213, 54, 73, 230, 151, 8, 77, 252, 22, 255, 143, 42, 14, 51, 250, 2, 173, 238, 36, 38, 0, 0, 0, 0, 0, 0, 0, 0, 0, 0, 0, 0, 0, 0, 0, 0, 0, 0, 0, 0, 0, 0, 0, 0, 0, 0, 0, 0, 0, 0, 0, 0, 0, 0, 0, 0, 0, 0, 0, 0, 0, 0, 0, 0, 0, 0, 0, 0, 0, 0, 0, 0, 0, 0, 0, 0, 0, 0, 0, 0, 0, 0, 0, 0, 0, 0, 0, 0, 0, 0, 0, 0, 0, 0, 0, 0, 0, 0, 0, 0, 0, 0, 0, 0, 0, 0, 0, 0, 0, 0, 0, 0, 0, 0, 0, 0, 0, 0, 0, 0, 0, 0, 0, 0, 0, 0, 0, 0, 0, 0, 0, 0, 0, 0, 0, 0, 0, 0, 0, 0, 0, 0, 0, 0, 0, 0, 0, 0, 223, 43, 191, 13, 49, 129, 231, 239, 194, 168, 251, 64, 49, 164, 222, 21, 47, 252, 234, 30, 57, 207, 4, 247, 176, 231, 219, 219, 36, 14, 245, 255, 235, 141, 53, 86, 40, 13, 34, 239, 31, 228, 8, 52, 210, 246, 239, 1, 252, 251, 230, 230, 63, 0, 214, 41, 20, 199, 40, 209, 224, 4, 46, 248, 0, 0, 0, 0, 0, 0, 0, 0, 0, 0, 0, 0, 0, 0, 0, 0, 0, 0, 0, 0, 0, 0, 0, 0, 0, 0, 0, 0, 0, 0, 0, 0, 0, 0, 0, 0, 0, 0, 0, 0, 0, 0, 0, 0, 0, 0, 0, 0, 0, 0, 0, 0, 0, 0, 0, 0, 0, 0, 0, 0, 0, 0, 0, 0, 0, 0, 0, 0, 0, 0, 0, 0, 0, 0, 0, 0, 0, 0, 0, 0, 0, 0, 0, 0, 0, 0, 0, 0, 0, 0, 0, 0, 0, 0, 0, 0, 0, 0, 0, 0, 0, 0, 0, 0, 0, 0, 0, 0, 0, 0, 0, 0, 0, 0, 0, 0, 0, 0, 0, 0, 0, 0, 0, 0, 0, 0, 0, 0, 78, 235, 177, 202, 230, 182, 176, 101, 15, 230, 84, 13, 159, 205, 81, 127, 189, 44, 45, 171, 193, 98, 173, 90, 12, 46, 55, 34, 210, 203, 46, 134, 7, 236, 106, 134, 167, 172, 78, 97, 39, 245, 45, 24, 79, 228, 206, 81, 38, 69, 46, 47, 200, 83, 3, 197, 191, 126, 46, 173, 33, 71, 150, 230, 146, 149, 108, 105, 118, 65, 92, 35, 184, 65, 229, 67, 72, 54, 11, 234, 199, 213, 213, 83, 18, 144, 28, 173, 204, 157, 182, 35, 100, 81, 144, 58, 109, 4, 3, 20, 29, 243, 189, 182, 129, 68, 177, 76, 173, 84, 59, 139, 144, 240, 41, 247, 8, 172, 153, 39, 60, 230, 206, 21, 166, 198, 8, 20, 75, 207, 49, 205, 212, 21, 235, 0, 32, 217, 5, 191, 176, 19, 63, 2, 211, 39, 243, 161, 221, 43, 183, 4, 79, 85, 79, 234, 129, 164, 75, 221, 248, 59, 237, 166, 164, 234, 63, 17, 19, 210, 35, 222, 77, 198, 219, 74, 46, 65, 12, 70, 179, 73, 48, 2, 217, 44, 21, 41, 33, 4, 187, 236, 0, 0, 0, 0, 0, 0, 0, 0, 0, 0, 0, 0, 0, 0, 0, 0, 0, 0, 0, 0, 0, 0, 0, 0, 0, 0, 0, 0, 0, 0, 0, 0, 0, 0, 0, 0, 0, 0, 0, 0, 0, 0, 0, 0, 0, 0, 0, 0, 0, 0, 0, 0, 0, 0, 0, 0, 0, 0, 0, 0, 0, 0, 0, 0, 0, 0, 0, 0, 0, 0, 0, 0, 0, 0, 0, 0, 0, 0, 0, 0, 0, 0, 0, 0, 0, 0, 0, 0, 0, 0, 0, 0, 0, 0, 0, 0, 0, 0, 0, 0, 0, 0, 0, 0, 0, 0, 0, 0, 0, 0, 0, 0, 0, 0, 0, 0, 0, 0, 0, 0, 0, 0, 0, 0, 0, 0, 0, 0, 0, 0, 0, 0, 0, 0, 0, 0, 0, 0, 0, 0, 0, 0, 0, 0, 0, 0, 0, 0, 0, 0, 0, 0, 0, 0, 0, 0, 0, 0, 0, 0, 0, 0, 0, 0, 0, 0, 0, 0, 0, 0, 0, 0, 0, 0, 0, 0, 0, 0, 0, 0, 0, 0, 0, 0, 0, 0, 0, 0, 0, 0, 0, 0, 0, 0, 0, 0, 0, 0, 0, 0, 0, 0, 0, 0, 0, 0, 0, 0, 0, 0, 0, 0, 0, 0, 0, 0, 0, 0, 0, 0, 0, 0, 0, 0, 0, 0, 0, 0, 0, 0, 0, 0, 0, 0, 0, 0, 0, 0, 0, 0, 0, 0, 0, 0, 0, 0, 0, 0, 0, 0, 0, 0, 0, 0, 0, 0, 164, 146, 47, 75, 87, 32, 238, 41, 255, 97, 49, 39, 43, 35, 22, 245, 205, 5, 215, 69, 240, 157, 0, 184, 162, 169, 151, 46, 76, 16, 164, 237, 29, 44, 251, 29, 46, 236, 212, 140, 153, 95, 209, 52, 197, 29, 247, 168, 129, 23, 83, 6, 67, 240, 171, 23, 74, 229, 6, 219, 226, 208, 233, 54, 80, 252, 248, 230, 240, 214, 196, 72, 222, 11, 30, 160, 229, 189, 109, 91, 219, 0, 78, 155, 129, 44, 200, 255, 87, 93, 78, 91, 19, 242, 54, 162, 33, 155, 50, 217, 202, 173, 92, 63, 235, 43, 87, 248, 52, 172, 141, 78, 2, 0, 0, 76, 130, 85, 1, 230, 205, 102, 55, 145, 253, 48, 196, 37, 60, 240, 184, 204, 197, 16, 230, 40, 26, 199, 88, 209, 209, 30, 97, 54, 179, 44, 54, 129, 207, 98, 202, 91, 86, 92, 85, 78, 3, 146, 95, 220, 12, 179, 18, 189, 181, 185, 95, 6, 198, 216, 251, 194, 58, 250, 171, 12, 57, 26, 238, 79, 135, 52, 14, 221, 176, 107, 58, 236, 18, 50, 205, 252, 0, 0, 0, 0, 0, 0, 0, 0, 0, 0, 0, 0, 0, 0, 0, 0, 0, 0, 0, 0, 0, 0, 0, 0, 0, 0, 0, 0, 0, 0, 0, 0, 0, 0, 0, 0, 0, 0, 0, 0, 0, 0, 0, 0, 0, 0, 0, 0, 0, 0, 0, 0, 0, 0, 0, 0, 0, 0, 0, 0, 0, 0, 0, 0, 0, 0, 0, 0, 0, 0, 0, 0, 0, 0, 0, 0, 0, 0, 0, 0, 0, 0, 0, 0, 0, 0, 0, 0, 0, 0, 0, 0, 0, 0, 0, 0, 0, 0, 0, 0, 0, 0, 0, 0, 0, 0, 0, 0, 0, 0, 0, 0, 0, 0, 0, 0, 0, 0, 0, 0, 0, 0, 0, 0, 0, 0, 0, 0, 228, 65, 210, 208, 222, 147, 197, 42, 217, 174, 21, 6, 237, 160, 49, 79, 240, 34, 12, 238, 245, 7, 251, 11, 252, 24, 19, 76, 41, 236, 245, 167, 1, 129, 93, 3, 40, 248, 23, 62, 41, 3, 31, 245, 26, 247, 157, 241, 237, 3, 6, 235, 17, 248, 243, 255, 238, 34, 38, 150, 37, 58, 237, 19, 173, 184, 26, 90, 67, 76, 92, 31, 238, 36, 245, 39, 5, 35, 19, 20, 179, 243, 237, 36, 5, 153, 40, 195, 157, 206, 197, 19, 98, 127, 191, 36, 84, 36, 230, 48, 60, 217, 1, 165, 154, 77, 196, 47, 163, 84, 56, 147, 145, 12, 62, 225, 11, 213, 199, 34, 20, 1, 178, 239, 175, 187, 21, 37, 0, 0, 0, 0, 0, 0, 0, 0, 0, 0, 0, 0, 0, 0, 0, 0, 0, 0, 0, 0, 0, 0, 0, 0, 0, 0, 0, 0, 0, 0, 0, 0, 0, 0, 0, 0, 0, 0, 0, 0, 0, 0, 0, 0, 0, 0, 0, 0, 0, 0, 0, 0, 0, 0, 0, 0, 0, 0, 0, 0, 0, 0, 0, 0, 0, 0, 0, 0, 0, 0, 0, 0, 0, 0, 0, 0, 0, 0, 0, 0, 0, 0, 0, 0, 0, 0, 0, 0, 0, 0, 0, 0, 0, 0, 0, 0, 0, 0, 0, 0, 0, 0, 0, 0, 0, 0, 0, 0, 0, 0, 0, 0, 0, 0, 0, 0, 0, 0, 0, 0, 0, 0, 0, 0, 0, 0, 0, 0, 0, 0, 0, 0, 0, 0, 0, 0, 0, 0, 0, 0, 0, 0, 0, 0, 0, 0, 0, 0, 0, 0, 0, 0, 0, 0, 0, 0, 0, 0, 0, 0, 0, 0, 0, 0, 0, 0, 0, 0, 0, 0, 0, 0, 0, 0, 0, 0, 0, 0, 0, 0, 0, 0, 0, 0, 0, 0, 0, 0, 0, 0, 0, 0, 0, 0, 0, 0, 0, 0, 0, 0, 0, 0, 0, 0, 0, 0, 0, 0, 0, 0, 0, 0, 0, 0, 0, 0, 0, 0, 0, 0, 0, 0, 0, 0, 0, 0, 0, 0, 0, 0, 0, 0, 0, 0, 0, 0, 0, 0, 0, 0, 0, 0, 0, 0, 0, 0, 0, 0, 0, 0, 0, 0, 0, 0, 0, 0, 199, 192, 71, 36, 75, 35, 28, 252, 221, 87, 4, 26, 37, 22, 205, 241, 200, 218, 205, 63, 29, 182, 75, 162, 185, 185, 198, 54, 61, 94, 194, 44, 51, 67, 217, 15, 40, 19, 238, 205, 129, 81, 212, 3, 165, 93, 49, 200, 162, 217, 46, 2, 8, 244, 171, 39, 52, 255, 208, 249, 179, 222, 45, 70, 218, 186, 65, 55, 115, 108, 88, 17, 217, 39, 193, 67, 6, 89, 179, 180, 224, 250, 204, 104, 57, 164, 49, 178, 141, 201, 181, 249, 20, 127, 223, 55, 116, 83, 5, 60, 55, 243, 184, 208, 182, 90, 165, 16, 217, 96, 60, 138, 171, 196, 36, 211, 240, 179, 212, 52, 27, 234, 194, 0, 195, 193, 242, 78, 0, 0, 0, 0, 0, 0, 0, 0, 0, 0, 0, 0, 0, 0, 0, 0, 0, 0, 0, 0, 0, 0, 0, 0, 0, 0, 0, 0, 0, 0, 0, 0, 0, 0, 0, 0, 0, 0, 0, 0, 0, 0, 0, 0, 0, 0, 0, 0, 0, 0, 0, 0, 0, 0, 0, 0, 0, 0, 0, 0, 0, 0, 0, 0, 234, 172, 62, 73, 42, 28, 47, 45, 181, 37, 21, 254, 67, 49, 8, 218, 215, 20, 195, 70, 251, 217, 70, 194, 220, 208, 206, 30, 79, 40, 219, 242, 51, 240, 249, 21, 56, 239, 217, 187, 192, 10, 220, 34, 233, 81, 7, 184, 129, 6, 61, 17, 55, 247, 179, 16, 255, 8, 196, 29, 162, 175, 36, 25, 0, 0, 0, 0, 0, 0, 0, 0, 0, 0, 0, 0, 0, 0, 0, 0, 0, 0, 0, 0, 0, 0, 0, 0, 0, 0, 0, 0, 0, 0, 0, 0, 0, 0, 0, 0, 0, 0, 0, 0, 0, 0, 0, 0, 0, 0, 0, 0, 0, 0, 0, 0, 0, 0, 0, 0, 0, 0, 0, 0, 0, 0, 0, 0, 0, 0, 0, 0, 0, 0, 0, 0, 0, 0, 0, 0, 0, 0, 0, 0, 0, 0, 0, 0, 0, 0, 0, 0, 0, 0, 0, 0, 0, 0, 0, 0, 0, 0, 0, 0, 0, 0, 0, 0, 0, 0, 0, 0, 0, 0, 0, 0, 0, 0, 0, 0, 0, 0, 0, 0, 0, 0, 0, 0, 0, 0, 0, 0, 219, 195, 90, 55, 85, 73, 18, 24, 233, 89, 225, 57, 50, 25, 3, 207, 205, 242, 209, 80, 57, 232, 79, 163, 220, 212, 201, 44, 60, 127, 166, 41, 54, 63, 219, 35, 69, 17, 243, 145, 147, 67, 177, 52, 169, 76, 20, 176, 158, 232, 22, 239, 9, 179, 200, 34, 82, 25, 177, 252, 162, 179, 18, 41, 0, 0, 0, 0, 0, 0, 0, 0, 0, 0, 0, 0, 0, 0, 0, 0, 0, 0, 0, 0, 0, 0, 0, 0, 0, 0, 0, 0, 0, 0, 0, 0, 0, 0, 0, 0, 0, 0, 0, 0, 0, 0, 0, 0, 0, 0, 0, 0, 0, 0, 0, 0, 0, 0, 0, 0, 0, 0, 0, 0, 0, 0, 0, 0, 0, 0, 0, 0, 0, 0, 0, 0, 0, 0, 0, 0, 0, 0, 0, 0, 0, 0, 0, 0, 0, 0, 0, 0, 0, 0, 0, 0, 0, 0, 0, 0, 0, 0, 0, 0, 0, 0, 0, 0, 0, 0, 0, 0, 0, 0, 0, 0, 0, 0, 0, 0, 0, 0, 0, 0, 0, 0, 0, 0, 0, 0, 0, 0, 0, 0, 0, 0, 0, 0, 0, 0, 0, 0, 0, 0, 0, 0, 0, 0, 0, 0, 0, 0, 0, 0, 0, 0, 0, 0, 0, 0, 0, 0, 0, 0, 0, 0, 0, 0, 0, 0, 0, 0, 0, 0, 0, 0, 0, 0, 0, 0, 0, 0, 0, 0, 0, 0, 0, 0, 0, 0, 0, 0, 0, 0, 0, 0, 0, 0, 0, 0, 0, 0, 0, 0, 0, 0, 0, 0, 0, 0, 0, 0, 0, 0, 0, 0, 0, 0, 0, 0, 0, 0, 0, 0, 0, 0, 0, 0, 0, 0, 0, 0, 0, 0, 0, 0, 0, 0, 0, 0, 0, 0, 0, 0, 0, 0, 0, 0, 0, 0, 0, 0, 0, 0, 0, 0, 0, 0, 0, 0, 0, 0, 0, 0, 0, 0, 0, 0, 0, 0, 0, 0, 0, 0, 0, 0, 0, 0, 0, 0, 0, 0, 0, 0, 0, 0, 0, 0, 0, 0, 0, 0, 0, 0, 0, 0, 0, 0, 0, 0, 0, 0, 0, 0, 0, 0, 0, 0, 0, 0, 0, 0, 0, 0, 0, 0, 0, 0, 0, 0, 0, 0, 0, 0, 0, 0, 0, 0, 0, 0, 0, 0, 0, 0, 0, 0, 0, 0, 0, 0, 0, 0, 0, 0, 0, 0, 0, 0, 0, 0, 0, 0, 0, 0, 0, 0, 0, 0, 0, 0, 0, 0, 0, 0, 0, 0, 0, 0, 0, 0, 0, 0, 0, 0, 0, 0, 0, 0, 0, 0, 0, 0, 0, 0, 0, 0, 0, 0, 0, 0, 0, 0, 0, 0, 0, 0, 0, 0, 0, 0, 0, 0, 0, 0, 0, 0, 0, 0, 0, 0, 0, 0, 0, 0, 0, 0, 0, 0, 0, 0, 0, 0, 0, 0, 0, 0, 0, 0, 0, 0, 0, 0, 0, 0, 0, 0, 0, 0, 0, 0, 0, 0, 0, 0, 0, 0, 0, 0, 0, 0, 0, 0, 0, 0, 0, 0, 0, 0, 0, 0, 0, 0, 0, 0, 0, 0, 0, 0, 0, 0, 0, 0, 0, 0, 0, 0, 0, 0, 0, 0, 0, 0, 0, 0, 0, 0, 0, 0, 0, 0, 0, 0, 0, 0, 0, 0, 0, 0, 0, 0, 0, 0, 0, 0, 0, 0, 0, 0, 0, 0, 0, 0, 0, 0, 0, 0, 38, 251, 231, 220, 241, 176, 207, 80, 220, 5, 52, 232, 226, 185, 81, 98, 215, 40, 68, 209, 185, 47, 171, 69, 53, 47, 50, 66, 40, 3, 66, 160, 11, 172, 67, 197, 243, 197, 85, 54, 255, 1, 43, 6, 67, 216, 165, 33, 29, 40, 29, 43, 223, 73, 5, 227, 205, 55, 49, 129, 38, 60, 208, 32, 202, 194, 14, 46, 93, 49, 68, 8, 255, 68, 243, 9, 239, 13, 242, 243, 217, 210, 253, 60, 37, 184, 85, 209, 208, 188, 194, 73, 67, 65, 133, 246, 90, 27, 18, 234, 67, 13, 208, 161, 144, 44, 219, 57, 173, 255, 30, 183, 134, 9, 26, 213, 73, 179, 129, 10, 16, 34, 194, 235, 174, 172, 15, 66, 250, 35, 190, 0, 9, 129, 225, 58, 190, 208, 29, 241, 26, 179, 32, 69, 245, 33, 47, 0, 250, 42, 244, 245, 249, 59, 2, 70, 20, 237, 247, 203, 230, 134, 77, 244, 8, 201, 70, 30, 5, 24, 22, 23, 46, 212, 175, 3, 255, 29, 6, 248, 9, 38, 33, 219, 253, 13, 68, 173, 251, 27, 232, 43, 0, 0, 0, 0, 0, 0, 0, 0, 0, 0, 0, 0, 0, 0, 0, 0, 0, 0, 0, 0, 0, 0, 0, 0, 0, 0, 0, 0, 0, 0, 0, 0, 0, 0, 0, 0, 0, 0, 0, 0, 0, 0, 0, 0, 0, 0, 0, 0, 0, 0, 0, 0, 0, 0, 0, 0, 0, 0, 0, 0, 0, 0, 0, 0, 214, 227, 100, 106, 79, 31, 114, 221, 159, 71, 176, 204, 45, 25, 198, 194, 169, 17, 151, 109, 7, 152, 11, 223, 176, 199, 171, 64, 112, 127, 192, 31, 76, 69, 190, 228, 255, 48, 219, 170, 182, 87, 231, 75, 129, 37, 82, 205, 200, 205, 53, 13, 54, 146, 199, 251, 98, 19, 148, 60, 212, 186, 33, 53, 0, 0, 0, 0, 0, 0, 0, 0, 0, 0, 0, 0, 0, 0, 0, 0, 0, 0, 0, 0, 0, 0, 0, 0, 0, 0, 0, 0, 0, 0, 0, 0, 0, 0, 0, 0, 0, 0, 0, 0, 0, 0, 0, 0, 0, 0, 0, 0, 0, 0, 0, 0, 0, 0, 0, 0, 0, 0, 0, 0, 0, 0, 0, 0, 0, 0, 0, 0, 0, 0, 0, 0, 0, 0, 0, 0, 0, 0, 0, 0, 0, 0, 0, 0, 0, 0, 0, 0, 0, 0, 0, 0, 0, 0, 0, 0, 0, 0, 0, 0, 0, 0, 0, 0, 0, 0, 0, 0, 0, 0, 0, 0, 0, 0, 0, 0, 0, 0, 0, 0, 0, 0, 0, 0, 0, 0, 0, 0, 0, 0, 0, 0, 0, 0, 0, 0, 0, 0, 0, 0, 0, 0, 0, 0, 0, 0, 0, 0, 0, 0, 0, 0, 0, 0, 0, 0, 0, 0, 0, 0, 0, 0, 0, 0, 0, 0, 0, 0, 0, 0, 0, 0, 0, 0, 0, 0, 0, 0, 0, 0, 0, 0, 0, 0, 0, 0, 0, 0, 0, 0, 0, 0, 0, 0, 0, 0, 0, 0, 0, 0, 0, 0, 0, 0, 0, 0, 0, 0, 0, 0, 0, 0, 0, 0, 0, 0, 0, 0, 0, 0, 0, 0, 0, 0, 0, 0, 0, 0, 0, 0, 0, 0, 0, 0, 0, 0, 0, 0, 0, 0, 0, 0, 0, 0, 0, 0, 0, 0, 0, 0, 0, 0, 0, 0, 0, 0, 0, 0, 0, 0, 0, 0, 0, 0, 0, 0, 0, 0, 0, 0, 0, 0, 0, 0, 0, 0, 0, 0, 0, 0, 0, 0, 0, 0, 0, 0, 0, 0, 0, 0, 0, 0, 0, 0, 0, 0, 0, 0, 0, 0, 0, 0, 0, 0, 0, 0, 0, 0, 0, 0, 0, 0, 0, 0, 0, 0, 0, 0, 0, 0, 193, 207, 46, 84, 92, 250, 2, 42, 248, 66, 249, 16, 76, 49, 251, 1, 177, 212, 5, 92, 19, 149, 7, 221, 135, 192, 174, 40, 122, 81, 152, 245, 66, 40, 1, 6, 37, 194, 193, 146, 185, 43, 172, 35, 207, 44, 12, 129, 148, 11, 94, 233, 51, 217, 160, 41, 11, 236, 247, 21, 199, 146, 18, 73, 0, 0, 0, 0, 0, 0, 0, 0, 0, 0, 0, 0, 0, 0, 0, 0, 0, 0, 0, 0, 0, 0, 0, 0, 0, 0, 0, 0, 0, 0, 0, 0, 0, 0, 0, 0, 0, 0, 0, 0, 0, 0, 0, 0, 0, 0, 0, 0, 0, 0, 0, 0, 0, 0, 0, 0, 0, 0, 0, 0, 0, 0, 0, 0, 76, 183, 49, 238, 200, 31, 192, 33, 65, 246, 73, 214, 184, 70, 76, 8, 245, 11, 39, 129, 185, 81, 147, 36, 57, 72, 80, 6, 207, 183, 78, 225, 238, 46, 245, 138, 150, 216, 42, 25, 7, 217, 2, 209, 57, 223, 246, 71, 22, 70, 26, 31, 212, 40, 62, 249, 212, 70, 253, 45, 40, 82, 178, 198, 0, 0, 0, 0, 0, 0, 0, 0, 0, 0, 0, 0, 0, 0, 0, 0, 0, 0, 0, 0, 0, 0, 0, 0, 0, 0, 0, 0, 0, 0, 0, 0, 0, 0, 0, 0, 0, 0, 0, 0, 0, 0, 0, 0, 0, 0, 0, 0, 0, 0, 0, 0, 0, 0, 0, 0, 0, 0, 0, 0, 0, 0, 0, 0, 0, 0, 0, 0, 0, 0, 0, 0, 0, 0, 0, 0, 0, 0, 0, 0, 0, 0, 0, 0, 0, 0, 0, 0, 0, 0, 0, 0, 0, 0, 0, 0, 0, 0, 0, 0, 0, 0, 0, 0, 0, 0, 0, 0, 0, 0, 0, 0, 0, 0, 0, 0, 0, 0, 0, 0, 0, 0, 0, 0, 0, 0, 0, 0, 0, 0, 0, 0, 0, 0, 0, 0, 0, 0, 0, 0, 0, 0, 0, 0, 0, 0, 0, 0, 0, 0, 0, 0, 0, 0, 0, 0, 0, 0, 0, 0, 0, 0, 0, 0, 0, 0, 0, 0, 0, 0, 0, 0, 0, 0, 0, 0, 0, 0, 0, 0, 0, 0, 0, 0, 0, 0, 0, 0, 0, 0, 0, 0, 0, 0, 0, 0, 0, 0, 0, 0, 0, 0, 0, 0, 0, 0, 0, 0, 0, 0, 0, 0, 0, 0, 0, 0, 0, 0, 0, 0, 0, 0, 0, 0, 0, 0, 0, 0, 0, 0, 0, 0, 0, 0, 0, 0, 0, 0, 0, 0, 0, 0, 0, 0, 0, 0, 0, 0, 0, 0, 0, 0, 0, 0, 0, 0, 0, 0, 0, 0, 0, 0, 0, 0, 0, 0, 0, 0, 0, 0, 0, 0, 0, 0, 0, 0, 0, 0, 0, 0, 0, 0, 0, 0, 0, 0, 0, 0, 0, 0, 0, 0, 0, 0, 0, 0, 0, 0, 0, 0, 0, 0, 0, 0, 0, 0, 0, 0, 0, 0, 0, 0, 0, 0, 0, 0, 0, 0, 0, 0, 0, 0, 0, 0, 0, 0, 0, 0, 0, 0, 0, 0, 0, 0, 0, 0, 0, 0, 0, 0, 0, 0, 0, 0, 0, 0, 0, 0, 0, 0, 0, 0, 0, 0, 0, 0, 0, 0, 0, 0, 0, 0, 0, 0, 0, 0, 0, 0, 0, 0, 0, 0, 0, 0, 0, 0, 0, 0, 0, 0, 0, 0, 0, 0, 0, 0, 0, 0, 0, 0, 0, 0, 0, 0, 0, 0, 0, 0, 0, 0, 0, 0, 0, 0, 0, 0, 0, 0, 0, 0, 0, 0, 0, 0, 0, 0, 0, 0, 0, 0, 0, 0, 0, 0, 0, 0, 0, 0, 0, 0, 0, 0, 0, 0, 0, 0, 0, 0, 0, 0, 0, 0, 0, 0, 0, 0, 0, 0, 0, 0, 0, 0, 0, 0, 0, 0, 0, 0, 0, 0, 0, 0, 0, 0, 0, 0, 0, 0, 0, 0, 0, 0, 0, 0, 0, 0, 0, 0, 0, 0, 0, 0, 0, 0, 0, 0, 0, 0, 0, 0, 0, 0, 0, 0, 0, 0, 0, 0, 0, 0, 0, 0, 0, 0, 0, 0, 0, 0, 0, 0, 0, 0, 0, 0, 0, 0, 0, 0, 0, 0, 0, 0, 0, 0, 0, 0, 0, 0, 0, 0, 0, 0, 0, 0, 0, 0, 0, 0, 0, 0, 0, 0, 0, 0, 0, 0, 0, 0, 0, 0, 0, 0, 0, 0, 0, 0, 0, 0, 0, 0, 0, 0, 0, 0, 0, 0, 0, 0, 0, 0, 0, 0, 0, 0, 0, 0, 0, 0, 0, 0, 0, 0, 0, 0, 0, 0, 0, 0, 0, 0, 0, 0, 0, 0, 0, 0, 0, 0, 0, 0, 0, 0, 0, 0, 0, 0, 0, 0, 0, 0, 0, 0, 0, 0, 0, 0, 0, 0, 0, 0, 0, 0, 0, 0, 0, 0, 0, 0, 0, 0, 0, 0, 0, 0, 0, 0, 0, 0, 0, 0, 0, 0, 0, 0, 0, 0, 0, 0, 0, 0, 0, 0, 0, 0, 0, 0, 0, 0, 0, 0, 0, 0, 0, 0, 0, 0, 0, 0, 0, 0, 0, 0, 0, 0, 0, 0, 0, 0, 0, 0, 0, 0, 0, 0, 0, 0, 0, 0, 0, 0, 0, 0, 0, 0, 0, 0, 0, 0, 0, 0, 0, 0, 0, 0, 0, 0, 0, 0, 0, 0, 0, 0, 0, 0, 0, 0, 0, 0, 0, 0, 0, 0, 0, 0, 0, 0, 0, 0, 0, 0, 0, 0, 0, 0, 0, 0, 0, 0, 0, 0, 0, 0, 0, 0, 0, 0, 0, 0, 0, 0, 0, 0, 0, 0, 0, 0, 0, 0, 0, 0, 0, 0, 0, 0, 0, 0, 0, 0, 0, 0, 0, 0, 0, 0, 0, 0, 0, 0, 0, 0, 0, 0, 0, 0, 0, 0, 0, 0, 0, 0, 0, 0, 0, 0, 0, 0, 0, 0, 0, 0, 0, 0, 0, 0, 0, 0, 0, 0, 0, 0, 0, 0, 0, 0, 0, 0, 0, 0, 0, 0, 0, 0, 0, 0, 0, 0, 0, 0, 0, 0, 0, 0, 0, 0, 0, 0, 0, 0, 0, 0, 0, 0, 0, 0, 0, 0, 0, 0, 0, 0, 0, 0, 0, 0, 0, 0, 0, 0, 0, 0, 0, 0, 0, 0, 0, 0, 0, 0, 0, 0, 0, 0, 0, 0, 0, 0, 0, 0, 0, 0, 0, 0, 0, 0, 0, 0, 0, 0, 0, 0, 0, 0, 0, 0, 0, 0, 0, 0, 0, 0, 0, 0, 0, 0, 0, 0, 0, 0, 0, 0, 0, 0, 0, 0, 0, 0, 0, 0, 0, 0, 0, 0, 0, 0, 0, 0, 0, 0, 0, 0, 0, 0, 0, 0, 0, 0, 0, 0, 0, 0, 0, 0, 0, 0, 0, 0, 0, 0, 0, 0, 0, 0, 0, 0, 0, 0, 0, 0, 0, 0, 209, 186, 72, 6, 111, 93, 98, 43, 174, 103, 218, 6, 65, 47, 222, 15, 203, 223, 204, 62, 12, 194, 247, 143, 190, 196, 233, 83, 17, 29, 165, 54, 107, 235, 194, 33, 50, 5, 167, 191, 146, 22, 240, 47, 187, 75, 0, 129, 175, 208, 53, 242, 8, 174, 178, 48, 38, 249, 169, 39, 153, 192, 42, 22, 0, 0, 0, 0, 0, 0, 0, 0, 0, 0, 0, 0, 0, 0, 0, 0, 0, 0, 0, 0, 0, 0, 0, 0, 0, 0, 0, 0, 0, 0, 0, 0, 0, 0, 0, 0, 0, 0, 0, 0, 0, 0, 0, 0, 0, 0, 0, 0, 0, 0, 0, 0, 0, 0, 0, 0, 0, 0, 0, 0, 0, 0, 0, 0, 0, 0, 0, 0, 0, 0, 0, 0, 0, 0, 0, 0, 0, 0, 0, 0, 0, 0, 0, 0, 0, 0, 0, 0, 0, 0, 0, 0, 0, 0, 0, 0, 0, 0, 0, 0, 0, 0, 0, 0, 0, 0, 0, 0, 0, 0, 0, 0, 0, 0, 0, 0, 0, 0, 0, 0, 0, 0, 0, 0, 0, 0, 0, 0, 0, 0, 0, 0, 0, 0, 0, 0, 0, 0, 0, 0, 0, 0, 0, 0, 0, 0, 0, 0, 0, 0, 0, 0, 0, 0, 0, 0, 0, 0, 0, 0, 0, 0, 0, 0, 0, 0, 0, 0, 0, 0, 0, 0, 0, 0, 0, 0, 0, 0, 0, 0, 0, 0, 0, 0, 0, 0, 0, 0, 0, 0, 0, 0, 33, 232, 228, 192, 175, 219, 214, 49, 56, 216, 98, 240, 165, 233, 115, 107, 255, 94, 81, 129, 217, 68, 146, 103, 49, 62, 21, 57, 207, 239, 80, 207, 247, 250, 85, 212, 161, 207, 73, 34, 49, 254, 100, 208, 98, 205, 164, 54, 72, 67, 253, 61, 222, 39, 43, 211, 190, 72, 11, 168, 90, 44, 155, 245, 65, 174, 49, 233, 208, 63, 203, 53, 47, 220, 47, 137, 211, 247, 21, 231, 6, 15, 46, 152, 191, 42, 161, 15, 89, 61, 85, 241, 129, 218, 83, 255, 7, 72, 233, 160, 134, 4, 19, 247, 220, 218, 27, 206, 54, 236, 21, 58, 31, 22, 226, 71, 134, 94, 50, 219, 216, 22, 1, 10, 62, 59, 204, 240, 0, 0, 0, 0, 0, 0, 0, 0, 0, 0, 0, 0, 0, 0, 0, 0, 0, 0, 0, 0, 0, 0, 0, 0, 0, 0, 0, 0, 0, 0, 0, 0, 0, 0, 0, 0, 0, 0, 0, 0, 0, 0, 0, 0, 0, 0, 0, 0, 0, 0, 0, 0, 0, 0, 0, 0, 0, 0, 0, 0, 0, 0, 0, 0, 0, 0, 0, 0, 0, 0, 0, 0, 0, 0, 0, 0, 0, 0, 0, 0, 0, 0, 0, 0, 0, 0, 0, 0, 0, 0, 0, 0, 0, 0, 0, 0, 0, 0, 0, 0, 0, 0, 0, 0, 0, 0, 0, 0, 0, 0, 0, 0, 0, 0, 0, 0, 0, 0, 0, 0, 0, 0, 0, 0, 0, 0, 0, 0, 195, 205, 76, 47, 18, 0, 36, 33, 189, 42, 225, 54, 2, 49, 214, 243, 201, 227, 229, 57, 32, 179, 28, 232, 216, 235, 197, 49, 100, 80, 201, 254, 45, 55, 228, 237, 55, 247, 4, 186, 199, 44, 208, 15, 215, 86, 60, 199, 129, 4, 68, 226, 41, 189, 209, 36, 44, 7, 217, 42, 161, 223, 11, 59, 17, 42, 174, 238, 199, 145, 193, 94, 194, 243, 47, 1, 185, 203, 65, 106, 254, 70, 50, 230, 237, 29, 176, 53, 10, 35, 72, 55, 251, 252, 77, 131, 250, 129, 109, 221, 28, 188, 93, 66, 241, 31, 28, 19, 14, 210, 217, 251, 12, 26, 5, 51, 188, 79, 251, 233, 217, 73, 46, 160, 83, 57, 228, 53, 0, 0, 0, 0, 0, 0, 0, 0, 0, 0, 0, 0, 0, 0, 0, 0, 0, 0, 0, 0, 0, 0, 0, 0, 0, 0, 0, 0, 0, 0, 0, 0, 0, 0, 0, 0, 0, 0, 0, 0, 0, 0, 0, 0, 0, 0, 0, 0, 0, 0, 0, 0, 0, 0, 0, 0, 0, 0, 0, 0, 0, 0, 0, 0, 0, 0, 0, 0, 0, 0, 0, 0, 0, 0, 0, 0, 0, 0, 0, 0, 0, 0, 0, 0, 0, 0, 0, 0, 0, 0, 0, 0, 0, 0, 0, 0, 0, 0, 0, 0, 0, 0, 0, 0, 0, 0, 0, 0, 0, 0, 0, 0, 0, 0, 0, 0, 0, 0, 0, 0, 0, 0, 0, 0, 0, 0, 0, 0, 0, 0, 0, 0, 0, 0, 0, 0, 0, 0, 0, 0, 0, 0, 0, 0, 0, 0, 0, 0, 0, 0, 0, 0, 0, 0, 0, 0, 0, 0, 0, 0, 0, 0, 0, 0, 0, 0, 0, 0, 0, 0, 0, 0, 0, 0, 0, 0, 0, 0, 0, 0, 0, 0, 0, 0, 0, 0, 0, 0, 0, 0, 0, 0, 101, 196, 201, 174, 158, 206, 177, 52, 51, 5, 120, 249, 177, 243, 85, 67, 177, 40, 95, 143, 196, 127, 148, 111, 66, 81, 45, 246, 4, 172, 56, 181, 21, 50, 87, 156, 172, 193, 46, 25, 245, 169, 78, 209, 116, 168, 231, 42, 102, 84, 24, 38, 227, 63, 51, 216, 0, 108, 46, 28, 61, 59, 161, 255, 28, 215, 232, 216, 208, 249, 179, 55, 33, 32, 84, 204, 166, 197, 89, 87, 195, 76, 56, 150, 141, 92, 173, 92, 110, 82, 84, 28, 238, 173, 64, 146, 5, 198, 54, 129, 208, 178, 66, 69, 11, 242, 85, 4, 51, 242, 174, 61, 55, 62, 52, 80, 188, 38, 28, 228, 186, 86, 86, 146, 45, 100, 152, 40, 0, 0, 0, 0, 0, 0, 0, 0, 0, 0, 0, 0, 0, 0, 0, 0, 0, 0, 0, 0, 0, 0, 0, 0, 0, 0, 0, 0, 0, 0, 0, 0, 0, 0, 0, 0, 0, 0, 0, 0, 0, 0, 0, 0, 0, 0, 0, 0, 0, 0, 0, 0, 0, 0, 0, 0, 0, 0, 0, 0, 0, 0, 0, 0, 0, 0, 0, 0, 0, 0, 0, 0, 0, 0, 0, 0, 0, 0, 0, 0, 0, 0, 0, 0, 0, 0, 0, 0, 0, 0, 0, 0, 0, 0, 0, 0, 0, 0, 0, 0, 0, 0, 0, 0, 0, 0, 0, 0, 0, 0, 0, 0, 0, 0, 0, 0, 0, 0, 0, 0, 0, 0, 0, 0, 0, 0, 0, 0, 194, 209, 72, 46, 61, 33, 26, 41, 184, 75, 8, 35, 18, 53, 35, 27, 185, 237, 202, 87, 54, 190, 20, 182, 182, 175, 192, 18, 49, 65, 239, 235, 72, 8, 255, 5, 59, 0, 229, 189, 154, 77, 223, 14, 216, 71, 241, 228, 129, 15, 47, 228, 2, 245, 154, 45, 70, 13, 240, 11, 210, 170, 68, 50, 24, 5, 222, 187, 231, 139, 174, 105, 216, 225, 62, 191, 179, 211, 253, 125, 248, 10, 86, 190, 192, 85, 183, 67, 38, 74, 96, 89, 26, 209, 76, 165, 255, 175, 53, 152, 247, 219, 100, 82, 24, 248, 85, 253, 36, 228, 167, 24, 52, 65, 62, 54, 235, 10, 4, 244, 194, 111, 15, 129, 56, 58, 241, 41, 0, 0, 0, 0, 0, 0, 0, 0, 0, 0, 0, 0, 0, 0, 0, 0, 0, 0, 0, 0, 0, 0, 0, 0, 0, 0, 0, 0, 0, 0, 0, 0, 0, 0, 0, 0, 0, 0, 0, 0, 0, 0, 0, 0, 0, 0, 0, 0, 0, 0, 0, 0, 0, 0, 0, 0, 0, 0, 0, 0, 0, 0, 0, 0, 15, 23, 183, 190, 199, 187, 214, 50, 226, 4, 82, 206, 248, 221, 57, 108, 7, 69, 21, 217, 195, 52, 226, 252, 253, 47, 29, 70, 28, 234, 19, 214, 246, 183, 95, 236, 191, 206, 96, 33, 16, 227, 69, 249, 28, 220, 180, 19, 1, 38, 19, 50, 239, 68, 15, 205, 234, 76, 63, 129, 61, 52, 199, 47, 242, 189, 219, 237, 212, 129, 202, 92, 246, 11, 59, 205, 191, 182, 101, 127, 227, 70, 86, 161, 186, 80, 155, 73, 59, 72, 95, 67, 4, 3, 90, 140, 2, 157, 91, 172, 227, 233, 51, 46, 233, 241, 99, 38, 115, 208, 224, 39, 239, 2, 66, 68, 223, 35, 23, 200, 214, 101, 244, 150, 66, 99, 231, 78, 0, 0, 0, 0, 0, 0, 0, 0, 0, 0, 0, 0, 0, 0, 0, 0, 0, 0, 0, 0, 0, 0, 0, 0, 0, 0, 0, 0, 0, 0, 0, 0, 0, 0, 0, 0, 0, 0, 0, 0, 0, 0, 0, 0, 0, 0, 0, 0, 0, 0, 0, 0, 0, 0, 0, 0, 0, 0, 0, 0, 0, 0, 0, 0, 176, 183, 75, 71, 71, 62, 105, 242, 221, 77, 0, 2, 56, 22, 5, 243, 220, 220, 193, 40, 8, 171, 26, 140, 197, 157, 129, 46, 123, 76, 184, 59, 109, 52, 233, 21, 48, 253, 201, 186, 150, 108, 196, 255, 187, 100, 33, 166, 159, 250, 63, 239, 23, 242, 195, 22, 48, 59, 191, 235, 156, 175, 42, 89, 22, 57, 221, 244, 25, 129, 192, 75, 250, 220, 44, 24, 14, 180, 68, 83, 222, 15, 65, 3, 191, 250, 228, 70, 37, 249, 251, 84, 31, 3, 60, 132, 218, 134, 99, 202, 54, 224, 43, 75, 62, 13, 58, 46, 252, 230, 167, 14, 230, 50, 6, 242, 34, 14, 31, 230, 206, 35, 67, 143, 74, 54, 1, 237, 84, 174, 25, 226, 174, 9, 225, 39, 29, 246, 41, 132, 221, 243, 74, 56, 231, 70, 71, 197, 181, 87, 129, 58, 92, 49, 28, 253, 230, 163, 110, 227, 228, 61, 46, 135, 160, 241, 89, 38, 8, 232, 49, 203, 19, 186, 191, 78, 72, 43, 15, 80, 189, 65, 39, 226, 220, 78, 23, 32, 49, 31, 140, 8, 141, 138, 76, 86, 50, 37, 75, 238, 226, 69, 56, 108, 255, 64, 5, 19, 143, 227, 212, 94, 59, 192, 12, 153, 184, 149, 129, 69, 82, 70, 172, 16, 115, 239, 20, 57, 68, 203, 228, 180, 176, 8, 198, 102, 143, 5, 19, 142, 179, 7, 63, 28, 91, 231, 129, 43, 63, 237, 174, 2, 140, 201, 55, 78, 0, 0, 0, 0, 0, 0, 0, 0, 0, 0, 0, 0, 0, 0, 0, 0, 0, 0, 0, 0, 0, 0, 0, 0, 0, 0, 0, 0, 0, 0, 0, 0, 0, 0, 0, 0, 0, 0, 0, 0, 0, 0, 0, 0, 0, 0, 0, 0, 0, 0, 0, 0, 0, 0, 0, 0, 0, 0, 0, 0, 0, 0, 0, 0, 93, 170, 216, 178, 188, 38, 165, 78, 6, 20, 46, 214, 159, 25, 63, 31, 185, 63, 78, 176, 178, 64, 156, 75, 58, 66, 71, 7, 198, 129, 81, 203, 240, 46, 28, 206, 164, 179, 56, 85, 19, 182, 28, 241, 84, 242, 10, 108, 46, 55, 11, 46, 163, 43, 14, 235, 202, 76, 243, 250, 10, 48, 202, 197, 0, 0, 0, 0, 0, 0, 0, 0, 0, 0, 0, 0, 0, 0, 0, 0, 0, 0, 0, 0, 0, 0, 0, 0, 0, 0, 0, 0, 0, 0, 0, 0, 0, 0, 0, 0, 0, 0, 0, 0, 0, 0, 0, 0, 0, 0, 0, 0, 0, 0, 0, 0, 0, 0, 0, 0, 0, 0, 0, 0, 0, 0, 0, 0, 196, 205, 107, 83, 74, 70, 68, 4, 213, 57, 214, 20, 25, 66, 241, 181, 194, 239, 219, 83, 50, 191, 60, 155, 162, 203, 172, 43, 61, 127, 165, 43, 52, 64, 219, 10, 67, 0, 213, 155, 163, 83, 187, 37, 192, 60, 83, 163, 172, 209, 47, 243, 56, 219, 175, 31, 45, 230, 196, 21, 141, 176, 11, 57, 232, 173, 40, 62, 93, 82, 21, 218, 181, 79, 30, 64, 244, 59, 14, 252, 197, 248, 180, 107, 247, 175, 10, 206, 252, 147, 191, 58, 57, 119, 142, 236, 58, 27, 15, 248, 38, 10, 215, 129, 199, 57, 176, 53, 199, 5, 28, 220, 161, 209, 46, 7, 46, 188, 151, 30, 105, 222, 195, 231, 172, 217, 24, 66, 179, 180, 55, 50, 63, 37, 51, 21, 190, 68, 4, 35, 49, 34, 250, 253, 184, 251, 224, 55, 39, 174, 35, 200, 173, 185, 168, 42, 56, 72, 175, 5, 62, 28, 254, 18, 59, 233, 220, 165, 173, 60, 205, 38, 187, 56, 33, 171, 129, 253, 60, 250, 37, 209, 165, 34, 38, 12, 221, 243, 176, 194, 39, 52, 0, 0, 0, 0, 0, 0, 0, 0, 0, 0, 0, 0, 0, 0, 0, 0, 0, 0, 0, 0, 0, 0, 0, 0, 0, 0, 0, 0, 0, 0, 0, 0, 0, 0, 0, 0, 0, 0, 0, 0, 0, 0, 0, 0, 0, 0, 0, 0, 0, 0, 0, 0, 0, 0, 0, 0, 0, 0, 0, 0, 0, 0, 0, 0, 0, 0, 0, 0, 0, 0, 0, 0, 0, 0, 0, 0, 0, 0, 0, 0, 0, 0, 0, 0, 0, 0, 0, 0, 0, 0, 0, 0, 0, 0, 0, 0, 0, 0, 0, 0, 0, 0, 0, 0, 0, 0, 0, 0, 0, 0, 0, 0, 0, 0, 0, 0, 0, 0, 0, 0, 0, 0, 0, 0, 0, 0, 0, 0, 0, 0, 0, 0, 0, 0, 0, 0, 0, 0, 0, 0, 0, 0, 0, 0, 0, 0, 0, 0, 0, 0, 0, 0, 0, 0, 0, 0, 0, 0, 0, 0, 0, 0, 0, 0, 0, 0, 0, 0, 0, 0, 0, 0, 0, 0, 0, 0, 0, 0, 0, 0, 0, 0, 0, 0, 0, 0, 0, 0, 0, 0, 0, 0, 0, 0, 0, 0, 0, 0, 0, 0, 0, 0, 0, 0, 0, 0, 0, 0, 0, 0, 0, 0, 0, 0, 0, 0, 0, 0, 0, 0, 0, 0, 0, 0, 0, 0, 0, 0, 0, 0, 0, 0, 0, 0, 0, 0, 0, 0, 0, 0, 0, 0, 0, 0, 0, 0, 0, 0, 0, 0, 0, 0, 0, 0, 0, 0, 0, 0, 0, 0, 0, 0, 0, 0, 0, 0, 0, 0, 0, 0, 0, 0, 0, 0, 0, 0, 0, 0, 0, 0, 0, 0, 0, 0, 0, 0, 0, 0, 0, 0, 0, 0, 0, 0, 0, 0, 0, 0, 0, 0, 0, 0, 0, 0, 0, 0, 0, 0, 0, 0, 0, 0, 0, 0, 0, 0, 0, 0, 0, 0, 191, 190, 1, 35, 39, 31, 21, 32, 211, 51, 222, 73, 13, 51, 242, 17, 177, 223, 224, 67, 49, 160, 244, 219, 207, 194, 166, 55, 74, 46, 160, 227, 18, 34, 241, 232, 88, 234, 211, 207, 195, 31, 176, 39, 208, 10, 54, 209, 129, 221, 57, 11, 53, 203, 163, 44, 60, 27, 211, 229, 189, 197, 58, 56, 30, 5, 28, 225, 196, 52, 246, 233, 67, 239, 8, 188, 210, 47, 253, 232, 40, 244, 252, 214, 223, 6, 233, 255, 14, 12, 25, 187, 129, 195, 22, 57, 222, 40, 240, 0, 196, 46, 245, 250, 32, 194, 11, 174, 28, 219, 44, 10, 27, 27, 233, 8, 193, 23, 43, 244, 229, 2, 6, 68, 15, 15, 230, 212, 182, 205, 59, 15, 58, 57, 83, 239, 211, 73, 42, 48, 251, 255, 34, 223, 205, 241, 206, 10, 30, 162, 61, 238, 179, 188, 204, 14, 95, 32, 166, 37, 92, 242, 31, 28, 71, 209, 3, 183, 154, 78, 178, 54, 178, 39, 53, 164, 129, 11, 93, 244, 38, 187, 179, 26, 8, 56, 206, 227, 173, 224, 30, 84, 35, 199, 194, 176, 9, 152, 173, 110, 211, 8, 100, 216, 212, 245, 66, 98, 198, 78, 77, 160, 225, 51, 211, 98, 74, 63, 255, 76, 31, 16, 12, 161, 3, 212, 51, 182, 30, 172, 109, 77, 26, 201, 92, 57, 94, 222, 169, 68, 255, 27, 31, 98, 184, 66, 57, 249, 249, 56, 35, 129, 245, 39, 231, 251, 0, 0, 0, 0, 0, 0, 0, 0, 0, 0, 0, 0, 0, 0, 0, 0, 0, 0, 0, 0, 0, 0, 0, 0, 0, 0, 0, 0, 0, 0, 0, 0, 0, 0, 0, 0, 0, 0, 0, 0, 0, 0, 0, 0, 0, 0, 0, 0, 0, 0, 0, 0, 0, 0, 0, 0, 0, 0, 0, 0, 0, 0, 0, 0, 16, 21, 160, 226, 4, 132, 189, 52, 222, 214, 52, 1, 194, 177, 74, 102, 243, 36, 30, 209, 199, 25, 208, 55, 7, 78, 254, 66, 38, 201, 70, 182, 252, 129, 103, 233, 248, 192, 49, 32, 32, 0, 67, 5, 57, 200, 140, 51, 37, 41, 16, 48, 213, 32, 6, 217, 229, 66, 32, 145, 58, 63, 221, 11, 206, 180, 59, 60, 28, 32, 33, 11, 201, 112, 227, 28, 64, 47, 212, 209, 234, 189, 243, 45, 64, 159, 85, 164, 226, 211, 183, 83, 62, 127, 199, 237, 40, 38, 2, 22, 20, 217, 230, 132, 197, 48, 148, 91, 198, 66, 239, 160, 181, 227, 254, 249, 245, 185, 206, 34, 91, 41, 145, 48, 183, 185, 23, 63, 174, 173, 74, 91, 91, 66, 63, 2, 208, 109, 231, 60, 62, 53, 230, 225, 194, 225, 205, 81, 62, 168, 82, 164, 183, 176, 170, 47, 87, 119, 168, 50, 75, 45, 212, 5, 73, 7, 181, 135, 157, 77, 160, 59, 160, 66, 77, 147, 129, 224, 56, 247, 77, 186, 149, 38, 79, 11, 175, 29, 145, 167, 38, 63, 74, 220, 220, 222, 217, 12, 146, 105, 244, 22, 17, 172, 172, 207, 65, 65, 200, 62, 10, 165, 167, 103, 129, 7, 81, 121, 77, 93, 25, 210, 114, 188, 17, 29, 4, 159, 202, 205, 23, 41, 240, 247, 71, 189, 46, 245, 183, 51, 56, 0, 24, 64, 184, 75, 253, 192, 221, 27, 62, 205, 53, 89, 151, 40, 0, 0, 0, 0, 0, 0, 0, 0, 0, 0, 0, 0, 0, 0, 0, 0, 0, 0, 0, 0, 0, 0, 0, 0, 0, 0, 0, 0, 0, 0, 0, 0, 0, 0, 0, 0, 0, 0, 0, 0, 0, 0, 0, 0, 0, 0, 0, 0, 0, 0, 0, 0, 0, 0, 0, 0, 0, 0, 0, 0, 0, 0, 0, 0, 199, 236, 62, 25, 55, 68, 90, 229, 200, 78, 48, 38, 71, 0, 218, 222, 158, 1, 11, 28, 36, 170, 67, 214, 140, 141, 129, 92, 60, 127, 200, 28, 84, 62, 19, 249, 15, 234, 209, 193, 188, 108, 244, 57, 190, 47, 251, 212, 145, 229, 82, 10, 64, 177, 197, 254, 235, 252, 183, 235, 191, 221, 7, 30, 53, 186, 14, 181, 182, 24, 179, 102, 89, 244, 45, 210, 181, 249, 107, 73, 195, 51, 22, 153, 151, 118, 141, 90, 104, 101, 88, 226, 178, 129, 78, 187, 247, 23, 70, 157, 178, 168, 105, 80, 226, 232, 56, 185, 65, 146, 210, 48, 78, 37, 9, 86, 142, 80, 42, 223, 171, 43, 55, 10, 63, 27, 179, 216, 85, 184, 255, 187, 212, 31, 181, 69, 61, 255, 59, 199, 184, 34, 77, 30, 211, 70, 56, 151, 192, 78, 165, 97, 79, 67, 40, 240, 160, 151, 52, 222, 24, 79, 21, 129, 190, 197, 77, 71, 253, 196, 54, 247, 80, 203, 255, 71, 80, 87, 28, 68, 177, 64, 43, 253, 231, 54, 50, 19, 50, 66, 160, 247, 0, 0, 0, 0, 0, 0, 0, 0, 0, 0, 0, 0, 0, 0, 0, 0, 0, 0, 0, 0, 0, 0, 0, 0, 0, 0, 0, 0, 0, 0, 0, 0, 0, 0, 0, 0, 0, 0, 0, 0, 0, 0, 0, 0, 0, 0, 0, 0, 0, 0, 0, 0, 0, 0, 0, 0, 0, 0, 0, 0, 0, 0, 0, 0, 0, 0, 0, 0, 0, 0, 0, 0, 0, 0, 0, 0, 0, 0, 0, 0, 0, 0, 0, 0, 0, 0, 0, 0, 0, 0, 0, 0, 0, 0, 0, 0, 0, 0, 0, 0, 0, 0, 0, 0, 0, 0, 0, 0, 0, 0, 0, 0, 0, 0, 0, 0, 0, 0, 0, 0, 0, 0, 0, 0, 0, 0, 0, 0, 0, 0, 0, 0, 0, 0, 0, 0, 0, 0, 0, 0, 0, 0, 0, 0, 0, 0, 0, 0, 0, 0, 0, 0, 0, 0, 0, 0, 0, 0, 0, 0, 0, 0, 0, 0, 0, 0, 0, 0, 0, 0, 0, 0, 0, 0, 0, 0, 0, 0, 0, 0, 0, 0, 0, 0, 0, 0, 0, 0, 0, 0, 0, 0, 153, 214, 70, 49, 57, 38, 89, 13, 207, 47, 36, 15, 43, 44, 10, 14, 195, 227, 235, 79, 28, 175, 33, 178, 234, 158, 198, 54, 116, 36, 172, 7, 39, 38, 232, 249, 102, 236, 228, 204, 157, 54, 205, 70, 197, 47, 24, 192, 129, 0, 75, 253, 20, 179, 196, 44, 72, 12, 255, 2, 182, 216, 53, 16, 0, 0, 0, 0, 0, 0, 0, 0, 0, 0, 0, 0, 0, 0, 0, 0, 0, 0, 0, 0, 0, 0, 0, 0, 0, 0, 0, 0, 0, 0, 0, 0, 0, 0, 0, 0, 0, 0, 0, 0, 0, 0, 0, 0, 0, 0, 0, 0, 0, 0, 0, 0, 0, 0, 0, 0, 0, 0, 0, 0, 0, 0, 0, 0, 0, 0, 0, 0, 0, 0, 0, 0, 0, 0, 0, 0, 0, 0, 0, 0, 0, 0, 0, 0, 0, 0, 0, 0, 0, 0, 0, 0, 0, 0, 0, 0, 0, 0, 0, 0, 0, 0, 0, 0, 0, 0, 0, 0, 0, 0, 0, 0, 0, 0, 0, 0, 0, 0, 0, 0, 0, 0, 0, 0, 0, 0, 0, 0, 0, 0, 0, 0, 0, 0, 0, 0, 0, 0, 0, 0, 0, 0, 0, 0, 0, 0, 0, 0, 0, 0, 0, 0, 0, 0, 0, 0, 0, 0, 0, 0, 0, 0, 0, 0, 0, 0, 0, 0, 0, 0, 0, 0, 0, 0, 0, 0, 0, 0, 0, 0, 0, 0, 0, 0, 0, 0, 0, 0, 0, 0, 0, 0, 0, 0, 0, 0, 0, 0, 0, 0, 0, 0, 0, 0, 0, 0, 0, 0, 0, 0, 0, 0, 0, 0, 0, 0, 0, 0, 0, 0, 0, 0, 0, 0, 0, 0, 0, 0, 0, 0, 0, 0, 0, 0, 0, 0, 0, 0, 0, 0, 0, 0, 0, 0, 0, 0, 0, 0, 0, 0, 0, 0, 0, 0, 0, 0, 0, 0, 0, 0, 0, 0, 0, 0, 0, 0, 0, 0, 0, 0, 0, 0, 0, 0, 0, 0, 0, 0, 0, 0, 0, 0, 0, 0, 0, 0, 0, 0, 0, 0, 0, 0, 0, 0, 0, 0, 0, 0, 0, 0, 0, 0, 0, 0, 0, 0, 0, 0, 0, 0, 0, 0, 0, 0, 0, 0, 0, 0, 0, 0, 86, 253, 255, 255, 4, 0, 0, 0, 0, 2, 0, 0, 128, 244, 114, 237, 87, 2, 0, 0, 64, 189, 74, 227, 192, 3, 174, 222, 117, 242, 255, 255, 128, 18, 205, 235, 32, 131, 237, 236, 231, 7, 0, 0, 41, 6, 0, 0, 20, 251, 255, 255, 160, 174, 45, 224, 192, 200, 17, 235, 128, 71, 55, 241, 64, 65, 106, 238, 174, 6, 0, 0, 201, 1, 0, 0, 123, 1, 0, 0, 128, 219, 93, 232, 64, 20, 191, 227, 6, 253, 255, 255, 209, 7, 0, 0, 160, 108, 62, 230, 224, 64, 65, 227, 240, 222, 27, 246, 32, 4, 168, 226, 74, 5, 0, 0, 82, 6, 0, 0, 64, 170, 7, 232, 30, 2, 0, 0, 48, 84, 208, 241, 224, 84, 226, 227, 112, 5, 0, 0, 128, 93, 12, 228, 0, 72, 208, 237, 160, 63, 242, 232, 32, 52, 229, 239, 0, 38, 202, 236, 192, 157, 235, 228, 96, 224, 197, 239, 224, 29, 245, 227, 77, 4, 0, 0, 248, 4, 0, 0, 161, 253, 255, 255, 64, 13, 124, 223, 57, 2, 0, 0, 64, 137, 87, 230, 128, 219, 169, 246, 224, 72, 2, 234, 0, 135, 116, 227, 0, 211, 92, 236, 144, 4, 0, 0, 160, 18, 238, 242, 240, 2, 0, 0, 0, 213, 134, 227, 128, 142, 208, 229, 160, 223, 240, 236, 128, 107, 185, 235, 96, 15, 106, 230, 192, 17, 23, 228, 128, 218, 191, 200, 96, 169, 145, 236, 96, 5, 58, 242, 192, 59, 200, 240, 192, 136, 56, 231, 128, 172, 244, 240, 64, 243, 71, 230, 224, 234, 58, 235, 0, 92, 175, 236, 172, 4, 0, 0, 224, 167, 45, 245, 224, 139, 75, 233, 248, 133, 59, 248, 103, 9, 0, 0, 162, 255, 255, 255, 224, 2, 33, 243, 192, 71, 32, 218, 112, 4, 0, 0, 53, 1, 0, 0, 160, 229, 153, 238, 176, 141, 160, 246, 64, 243, 87, 237, 72, 4, 0, 0, 65, 4, 0, 0, 192, 12, 25, 233, 224, 101, 198, 238, 43, 4, 0, 0, 107, 2, 0, 0, 192, 90, 85, 218, 84, 2, 0, 0, 151, 1, 0, 0, 192, 58, 115, 241, 130, 7, 0, 0, 18, 254, 255, 255, 104, 4, 0, 0, 131, 4, 0, 0, 48, 193, 183, 242, 246, 253, 255, 255, 32, 227, 115, 240, 27, 2, 0, 0, 228, 255, 255, 255, 242, 2, 0, 0, 224, 239, 127, 230, 0, 147, 238, 239, 0, 180, 92, 234, 64, 29, 184, 234, 32, 118, 66, 231, 110, 2, 0, 0, 78, 255, 255, 255, 199, 8, 0, 0, 154, 0, 0, 0, 160, 217, 193, 239, 135, 1, 0, 0, 56, 7, 0, 0, 7, 4, 0, 0, 92, 4, 0, 0, 192, 75, 246, 212, 54, 5, 0, 0, 209, 4, 0, 0, 221, 7, 0, 0, 64, 61, 170, 238, 64, 60, 190, 237, 128, 152, 54, 225, 214, 4, 0, 0, 128, 151, 125, 251, 0, 12, 169, 213, 176, 10, 138, 247, 32, 84, 69, 238, 64, 109, 194, 246, 98, 255, 255, 255, 4, 0, 0, 0, 128, 0, 0, 0, 4, 207, 23, 18, 103, 252, 255, 48, 218, 90, 231, 240, 9, 16, 192, 65, 51, 0, 252, 60, 212, 1, 233, 7, 20, 227, 234, 255, 196, 255, 24, 221, 252, 13, 225, 5, 7, 229, 245, 12, 59, 220, 61, 246, 225, 241, 251, 248, 235, 238, 204, 6, 70, 249, 254, 227, 20, 18, 231, 239, 32, 12, 12, 0, 251, 16, 22, 249, 222, 242, 6, 253, 46, 92, 230, 228, 223, 54, 23, 1, 33, 60, 54, 230, 230, 209, 73, 232, 55, 71, 253, 226, 43, 60, 208, 12, 67, 10, 232, 205, 201, 252, 15, 20, 17, 16, 213, 127, 207, 79, 10, 33, 219, 215, 65, 18, 201, 51, 57, 244, 13, 5, 213, 2, 235, 0, 240, 0, 238, 255, 255, 255, 4, 0, 0, 0, 4, 0, 0, 0, 80, 253, 255, 255, 0, 0, 6, 0, 8, 0, 4, 0, 6, 0, 0, 0, 4, 0, 0, 0, 8, 0, 0, 0, 1, 0, 0, 0, 2, 0, 0, 0, 124, 199, 255, 255, 128, 199, 255, 255, 15, 0, 0, 0, 77, 76, 73, 82, 32, 67, 111, 110, 118, 101, 114, 116, 101, 100, 46, 0, 1, 0, 0, 0, 20, 0, 0, 0, 0, 0, 14, 0, 24, 0, 20, 0, 16, 0, 12, 0, 8, 0, 4, 0, 14, 0, 0, 0, 20, 0, 0, 0, 28, 0, 0, 0, 88, 3, 0, 0, 92, 3, 0, 0, 96, 3, 0, 0, 4, 0, 0, 0, 109, 97, 105, 110, 0, 0, 0, 0, 12, 0, 0, 0, 244, 2, 0, 0, 140, 2, 0, 0, 60, 2, 0, 0, 244, 1, 0, 0, 180, 1, 0, 0, 108, 1, 0, 0, 36, 1, 0, 0, 228, 0, 0, 0, 176, 0, 0, 0, 108, 0, 0, 0, 52, 0, 0, 0, 16, 0, 0, 0, 0, 0, 10, 0, 16, 0, 12, 0, 8, 0, 4, 0, 10, 0, 0, 0, 12, 0, 0, 0, 16, 0, 0, 0, 4, 0, 0, 0, 1, 0, 0, 0, 33, 0, 0, 0, 1, 0, 0, 0, 32, 0, 0, 0, 218, 253, 255, 255, 20, 0, 0, 0, 0, 0, 0, 8, 16, 0, 0, 0, 20, 0, 0, 0, 3, 0, 0, 0, 76, 200, 255, 255, 1, 0, 0, 0, 32, 0, 0, 0, 3, 0, 0, 0, 31, 0, 0, 0, 3, 0, 0, 0, 2, 0, 0, 0, 14, 254, 255, 255, 28, 0, 0, 0, 0, 0, 0, 8, 28, 0, 0, 0, 32, 0, 0, 0, 3, 0, 0, 0, 0, 0, 6, 0, 8, 0, 7, 0, 6, 0, 0, 0, 0, 0, 0, 1, 1, 0, 0, 0, 31, 0, 0, 0, 3, 0, 0, 0, 30, 0, 0, 0, 5, 0, 0, 0, 4, 0, 0, 0, 78, 254, 255, 255, 20, 0, 0, 0, 0, 0, 0, 27, 16, 0, 0, 0, 20, 0, 0, 0, 2, 0, 0, 0, 192, 200, 255, 255, 1, 0, 0, 0, 30, 0, 0, 0, 2, 0, 0, 0, 29, 0, 0, 0, 1, 0, 0, 0, 26, 254, 255, 255, 16, 0, 0, 0, 0, 0, 0, 1, 24, 0, 0, 0, 28, 0, 0, 0, 12, 254, 255, 255, 0, 0, 0, 1, 1, 0, 0, 0, 1, 0, 0, 0, 1, 0, 0, 0, 29, 0, 0, 0, 3, 0, 0, 0, 28, 0, 0, 0, 7, 0, 0, 0, 6, 0, 0, 0, 186, 254, 255, 255, 20, 0, 0, 0, 0, 0, 0, 2, 32, 0, 0, 0, 36, 0, 0, 0, 1, 0, 0, 0, 170, 254, 255, 255, 0, 0, 0, 1, 1, 0, 0, 0, 2, 0, 0, 0, 2, 0, 0, 0, 1, 0, 0, 0, 28, 0, 0, 0, 3, 0, 0, 0, 27, 0, 0, 0, 9, 0, 0, 0, 8, 0, 0, 0, 254, 254, 255, 255, 20, 0, 0, 0, 0, 0, 0, 2, 32, 0, 0, 0, 36, 0, 0, 0, 1, 0, 0, 0, 238, 254, 255, 255, 0, 0, 0, 1, 1, 0, 0, 0, 1, 0, 0, 0, 1, 0, 0, 0, 1, 0, 0, 0, 27, 0, 0, 0, 3, 0, 0, 0, 26, 0, 0, 0, 11, 0, 0, 0, 10, 0, 0, 0, 222, 254, 255, 255, 16, 0, 0, 0, 0, 0, 0, 1, 24, 0, 0, 0, 28, 0, 0, 0, 208, 254, 255, 255, 0, 0, 0, 1, 1, 0, 0, 0, 1, 0, 0, 0, 1, 0, 0, 0, 26, 0, 0, 0, 3, 0, 0, 0, 25, 0, 0, 0, 13, 0, 0, 0, 12, 0, 0, 0, 126, 255, 255, 255, 20, 0, 0, 0, 0, 0, 0, 2, 32, 0, 0, 0, 36, 0, 0, 0, 1, 0, 0, 0, 110, 255, 255, 255, 0, 0, 0, 1, 1, 0, 0, 0, 2, 0, 0, 0, 2, 0, 0, 0, 1, 0, 0, 0, 25, 0, 0, 0, 3, 0, 0, 0, 24, 0, 0, 0, 15, 0, 0, 0, 14, 0, 0, 0, 94, 255, 255, 255, 16, 0, 0, 0, 0, 0, 0, 1, 24, 0, 0, 0, 28, 0, 0, 0, 80, 255, 255, 255, 0, 0, 0, 1, 1, 0, 0, 0, 1, 0, 0, 0, 1, 0, 0, 0, 24, 0, 0, 0, 3, 0, 0, 0, 23, 0, 0, 0, 17, 0, 0, 0, 16, 0, 0, 0, 0, 0, 14, 0, 26, 0, 20, 0, 16, 0, 12, 0, 11, 0, 4, 0, 14, 0, 0, 0, 36, 0, 0, 0, 0, 0, 0, 2, 48, 0, 0, 0, 52, 0, 0, 0, 1, 0, 0, 0, 0, 0, 14, 0, 20, 0, 0, 0, 16, 0, 12, 0, 8, 0, 7, 0, 14, 0, 0, 0, 0, 0, 0, 1, 1, 0, 0, 0, 1, 0, 0, 0, 1, 0, 0, 0, 1, 0, 0, 0, 23, 0, 0, 0, 3, 0, 0, 0, 22, 0, 0, 0, 19, 0, 0, 0, 18, 0, 0, 0, 0, 0, 14, 0, 20, 0, 0, 0, 16, 0, 12, 0, 11, 0, 4, 0, 14, 0, 0, 0, 28, 0, 0, 0, 0, 0, 0, 1, 36, 0, 0, 0, 40, 0, 0, 0, 12, 0, 16, 0, 0, 0, 12, 0, 8, 0, 7, 0, 12, 0, 0, 0, 0, 0, 0, 1, 2, 0, 0, 0, 2, 0, 0, 0, 1, 0, 0, 0, 22, 0, 0, 0, 3, 0, 0, 0, 0, 0, 0, 0, 21, 0, 0, 0, 20, 0, 0, 0, 1, 0, 0, 0, 33, 0, 0, 0, 1, 0, 0, 0, 0, 0, 0, 0, 34, 0, 0, 0, 20, 53, 0, 0, 184, 52, 0, 0, 64, 52, 0, 0, 220, 51, 0, 0, 136, 45, 0, 0, 44, 39, 0, 0, 216, 35, 0, 0, 116, 32, 0, 0, 160, 30, 0, 0, 164, 28, 0, 0, 208, 26, 0, 0, 232, 24, 0, 0, 16, 23, 0, 0, 44, 21, 0, 0, 24, 20, 0, 0, 240, 18, 0, 0, 216, 17, 0, 0, 180, 16, 0, 0, 0, 16, 0, 0, 56, 15, 0, 0, 128, 14, 0, 0, 188, 13, 0, 0, 144, 12, 0, 0, 236, 10, 0, 0, 192, 9, 0, 0, 28, 8, 0, 0, 240, 6, 0, 0, 76, 5, 0, 0, 168, 3, 0, 0, 124, 2, 0, 0, 232, 1, 0, 0, 36, 1, 0, 0, 128, 0, 0, 0, 4, 0, 0, 0, 138, 203, 255, 255, 0, 0, 0, 1, 24, 0, 0, 0, 32, 0, 0, 0, 60, 0, 0, 0, 34, 0, 0, 0, 0, 0, 0, 9, 80, 0, 0, 0, 2, 0, 0, 0, 255, 255, 255, 255, 1, 0, 0, 0, 108, 203, 255, 255, 8, 0, 0, 0, 16, 0, 0, 0, 1, 0, 0, 0, 128, 255, 255, 255, 255, 255, 255, 255, 1, 0, 0, 0, 0, 0, 128, 59, 27, 0, 0, 0, 83, 116, 97, 116, 101, 102, 117, 108, 80, 97, 114, 116, 105, 116, 105, 111, 110, 101, 100, 67, 97, 108, 108, 95, 49, 58, 48, 0, 2, 0, 0, 0, 1, 0, 0, 0, 1, 0, 0, 0, 2, 204, 255, 255, 0, 0, 0, 1, 24, 0, 0, 0, 32, 0, 0, 0, 64, 0, 0, 0, 33, 0, 0, 0, 0, 0, 0, 9, 120, 0, 0, 0, 2, 0, 0, 0, 255, 255, 255, 255, 1, 0, 0, 0, 228, 203, 255, 255, 8, 0, 0, 0, 20, 0, 0, 0, 1, 0, 0, 0, 128, 255, 255, 255, 255, 255, 255, 255, 0, 0, 0, 0, 1, 0, 0, 0, 149, 93, 1, 60, 60, 0, 0, 0, 102, 117, 110, 99, 116, 105, 111, 110, 97, 108, 95, 52, 95, 49, 47, 100, 101, 110, 115, 101, 95, 57, 95, 49, 47, 77, 97, 116, 77, 117, 108, 59, 102, 117, 110, 99, 116, 105, 111, 110, 97, 108, 95, 52, 95, 49, 47, 100, 101, 110, 115, 101, 95, 57, 95, 49, 47, 65, 100, 100, 0, 0, 0, 0, 2, 0, 0, 0, 1, 0, 0, 0, 1, 0, 0, 0, 162, 204, 255, 255, 0, 0, 0, 1, 24, 0, 0, 0, 32, 0, 0, 0, 64, 0, 0, 0, 32, 0, 0, 0, 0, 0, 0, 9, 152, 0, 0, 0, 2, 0, 0, 0, 255, 255, 255, 255, 128, 0, 0, 0, 132, 204, 255, 255, 8, 0, 0, 0, 20, 0, 0, 0, 1, 0, 0, 0, 128, 255, 255, 255, 255, 255, 255, 255, 0, 0, 0, 0, 1, 0, 0, 0, 218, 201, 48, 60, 94, 0, 0, 0, 102, 117, 110, 99, 116, 105, 111, 110, 97, 108, 95, 52, 95, 49, 47, 100, 101, 110, 115, 101, 95, 56, 95, 49, 47, 77, 97, 116, 77, 117, 108, 59, 102, 117, 110, 99, 116, 105, 111, 110, 97, 108, 95, 52, 95, 49, 47, 100, 101, 110, 115, 101, 95, 56, 95, 49, 47, 82, 101, 108, 117, 59, 102, 117, 110, 99, 116, 105, 111, 110, 97, 108, 95, 52, 95, 49, 47, 100, 101, 110, 115, 101, 95, 56, 95, 49, 47, 66, 105, 97, 115, 65, 100, 100, 0, 0, 2, 0, 0, 0, 1, 0, 0, 0, 128, 0, 0, 0, 98, 205, 255, 255, 0, 0, 0, 1, 24, 0, 0, 0, 32, 0, 0, 0, 60, 0, 0, 0, 31, 0, 0, 0, 0, 0, 0, 9, 104, 0, 0, 0, 2, 0, 0, 0, 255, 255, 255, 255, 64, 0, 0, 0, 68, 205, 255, 255, 8, 0, 0, 0, 16, 0, 0, 0, 1, 0, 0, 0, 128, 255, 255, 255, 255, 255, 255, 255, 1, 0, 0, 0, 231, 124, 97, 60, 48, 0, 0, 0, 102, 117, 110, 99, 116, 105, 111, 110, 97, 108, 95, 52, 95, 49, 47, 103, 108, 111, 98, 97, 108, 95, 97, 118, 101, 114, 97, 103, 101, 95, 112, 111, 111, 108, 105, 110, 103, 50, 100, 95, 52, 95, 49, 47, 77, 101, 97, 110, 0, 0, 0, 0, 2, 0, 0, 0, 1, 0, 0, 0, 64, 0, 0, 0, 242, 205, 255, 255, 0, 0, 0, 1, 24, 0, 0, 0, 40, 0, 0, 0, 68, 0, 0, 0, 30, 0, 0, 0, 0, 0, 0, 9, 248, 0, 0, 0, 4, 0, 0, 0, 255, 255, 255, 255, 12, 0, 0, 0, 12, 0, 0, 0, 64, 0, 0, 0, 220, 205, 255, 255, 8, 0, 0, 0, 16, 0, 0, 0, 1, 0, 0, 0, 128, 255, 255, 255, 255, 255, 255, 255, 1, 0, 0, 0, 196, 59, 72, 61, 184, 0, 0, 0, 102, 117, 110, 99, 116, 105, 111, 110, 97, 108, 95, 52, 95, 49, 47, 97, 99, 116, 105, 118, 97, 116, 105, 111, 110, 95, 51, 57, 95, 49, 47, 82, 101, 108, 117, 59, 102, 117, 110, 99, 116, 105, 111, 110, 97, 108, 95, 52, 95, 49, 47, 98, 97, 116, 99, 104, 95, 110, 111, 114, 109, 97, 108, 105, 122, 97, 116, 105, 111, 110, 95, 51, 57, 95, 49, 47, 98, 97, 116, 99, 104, 110, 111, 114, 109, 47, 97, 100, 100, 95, 49, 59, 102, 117, 110, 99, 116, 105, 111, 110, 97, 108, 95, 52, 95, 49, 47, 99, 111, 110, 118, 50, 100, 95, 49, 57, 95, 49, 47, 99, 111, 110, 118, 111, 108, 117, 116, 105, 111, 110, 59, 102, 117, 110, 99, 116, 105, 111, 110, 97, 108, 95, 52, 95, 49, 47, 98, 97, 116, 99, 104, 95, 110, 111, 114, 109, 97, 108, 105, 122, 97, 116, 105, 111, 110, 95, 51, 57, 95, 49, 47, 98, 97, 116, 99, 104, 110, 111, 114, 109, 47, 115, 117, 98, 0, 0, 0, 0, 4, 0, 0, 0, 1, 0, 0, 0, 12, 0, 0, 0, 12, 0, 0, 0, 64, 0, 0, 0, 26, 207, 255, 255, 0, 0, 0, 1, 24, 0, 0, 0, 40, 0, 0, 0, 72, 0, 0, 0, 29, 0, 0, 0, 0, 0, 0, 9, 112, 1, 0, 0, 4, 0, 0, 0, 255, 255, 255, 255, 12, 0, 0, 0, 12, 0, 0, 0, 32, 0, 0, 0, 4, 207, 255, 255, 8, 0, 0, 0, 20, 0, 0, 0, 1, 0, 0, 0, 128, 255, 255, 255, 255, 255, 255, 255, 0, 0, 0, 0, 1, 0, 0, 0, 165, 106, 128, 61, 46, 1, 0, 0, 102, 117, 110, 99, 116, 105, 111, 110, 97, 108, 95, 52, 95, 49, 47, 97, 99, 116, 105, 118, 97, 116, 105, 111, 110, 95, 51, 56, 95, 49, 47, 82, 101, 108, 117, 59, 102, 117, 110, 99, 116, 105, 111, 110, 97, 108, 95, 52, 95, 49, 47, 98, 97, 116, 99, 104, 95, 110, 111, 114, 109, 97, 108, 105, 122, 97, 116, 105, 111, 110, 95, 51, 56, 95, 49, 47, 98, 97, 116, 99, 104, 110, 111, 114, 109, 47, 97, 100, 100, 95, 49, 59, 102, 117, 110, 99, 116, 105, 111, 110, 97, 108, 95, 52, 95, 49, 47, 98, 97, 116, 99, 104, 95, 110, 111, 114, 109, 97, 108, 105, 122, 97, 116, 105, 111, 110, 95, 51, 56, 95, 49, 47, 98, 97, 116, 99, 104, 110, 111, 114, 109, 47, 109, 117, 108, 95, 49, 59, 102, 117, 110, 99, 116, 105, 111, 110, 97, 108, 95, 52, 95, 49, 47, 100, 101, 112, 116, 104, 119, 105, 115, 101, 95, 99, 111, 110, 118, 50, 100, 95, 49, 57, 95, 49, 47, 100, 101, 112, 116, 104, 119, 105, 115, 101, 59, 102, 117, 110, 99, 116, 105, 111, 110, 97, 108, 95, 52, 95, 49, 47, 98, 97, 116, 99, 104, 95, 110, 111, 114, 109, 97, 108, 105, 122, 97, 116, 105, 111, 110, 95, 51, 56, 95, 49, 47, 98, 97, 116, 99, 104, 110, 111, 114, 109, 47, 109, 117, 108, 59, 102, 117, 110, 99, 116, 105, 111, 110, 97, 108, 95, 52, 95, 49, 47, 98, 97, 116, 99, 104, 95, 110, 111, 114, 109, 97, 108, 105, 122, 97, 116, 105, 111, 110, 95, 51, 56, 95, 49, 47, 98, 97, 116, 99, 104, 110, 111, 114, 109, 47, 115, 117, 98, 0, 0, 4, 0, 0, 0, 1, 0, 0, 0, 12, 0, 0, 0, 12, 0, 0, 0, 32, 0, 0, 0, 186, 208, 255, 255, 0, 0, 0, 1, 24, 0, 0, 0, 40, 0, 0, 0, 72, 0, 0, 0, 28, 0, 0, 0, 0, 0, 0, 9, 112, 1, 0, 0, 4, 0, 0, 0, 255, 255, 255, 255, 24, 0, 0, 0, 24, 0, 0, 0, 32, 0, 0, 0, 164, 208, 255, 255, 8, 0, 0, 0, 20, 0, 0, 0, 1, 0, 0, 0, 128, 255, 255, 255, 255, 255, 255, 255, 0, 0, 0, 0, 1, 0, 0, 0, 244, 141, 165, 61, 46, 1, 0, 0, 102, 117, 110, 99, 116, 105, 111, 110, 97, 108, 95, 52, 95, 49, 47, 97, 99, 116, 105, 118, 97, 116, 105, 111, 110, 95, 51, 55, 95, 49, 47, 82, 101, 108, 117, 59, 102, 117, 110, 99, 116, 105, 111, 110, 97, 108, 95, 52, 95, 49, 47, 98, 97, 116, 99, 104, 95, 110, 111, 114, 109, 97, 108, 105, 122, 97, 116, 105, 111, 110, 95, 51, 55, 95, 49, 47, 98, 97, 116, 99, 104, 110, 111, 114, 109, 47, 97, 100, 100, 95, 49, 59, 102, 117, 110, 99, 116, 105, 111, 110, 97, 108, 95, 52, 95, 49, 47, 98, 97, 116, 99, 104, 95, 110, 111, 114, 109, 97, 108, 105, 122, 97, 116, 105, 111, 110, 95, 51, 55, 95, 49, 47, 98, 97, 116, 99, 104, 110, 111, 114, 109, 47, 109, 117, 108, 95, 49, 59, 102, 117, 110, 99, 116, 105, 111, 110, 97, 108, 95, 52, 95, 49, 47, 100, 101, 112, 116, 104, 119, 105, 115, 101, 95, 99, 111, 110, 118, 50, 100, 95, 49, 56, 95, 49, 47, 100, 101, 112, 116, 104, 119, 105, 115, 101, 59, 102, 117, 110, 99, 116, 105, 111, 110, 97, 108, 95, 52, 95, 49, 47, 98, 97, 116, 99, 104, 95, 110, 111, 114, 109, 97, 108, 105, 122, 97, 116, 105, 111, 110, 95, 51, 55, 95, 49, 47, 98, 97, 116, 99, 104, 110, 111, 114, 109, 47, 109, 117, 108, 59, 102, 117, 110, 99, 116, 105, 111, 110, 97, 108, 95, 52, 95, 49, 47, 98, 97, 116, 99, 104, 95, 110, 111, 114, 109, 97, 108, 105, 122, 97, 116, 105, 111, 110, 95, 51, 55, 95, 49, 47, 98, 97, 116, 99, 104, 110, 111, 114, 109, 47, 115, 117, 98, 0, 0, 4, 0, 0, 0, 1, 0, 0, 0, 24, 0, 0, 0, 24, 0, 0, 0, 32, 0, 0, 0, 90, 210, 255, 255, 0, 0, 0, 1, 24, 0, 0, 0, 40, 0, 0, 0, 68, 0, 0, 0, 27, 0, 0, 0, 0, 0, 0, 9, 248, 0, 0, 0, 4, 0, 0, 0, 255, 255, 255, 255, 24, 0, 0, 0, 24, 0, 0, 0, 32, 0, 0, 0, 68, 210, 255, 255, 8, 0, 0, 0, 16, 0, 0, 0, 1, 0, 0, 0, 128, 255, 255, 255, 255, 255, 255, 255, 1, 0, 0, 0, 221, 246, 87, 61, 184, 0, 0, 0, 102, 117, 110, 99, 116, 105, 111, 110, 97, 108, 95, 52, 95, 49, 47, 97, 99, 116, 105, 118, 97, 116, 105, 111, 110, 95, 51, 54, 95, 49, 47, 82, 101, 108, 117, 59, 102, 117, 110, 99, 116, 105, 111, 110, 97, 108, 95, 52, 95, 49, 47, 98, 97, 116, 99, 104, 95, 110, 111, 114, 109, 97, 108, 105, 122, 97, 116, 105, 111, 110, 95, 51, 54, 95, 49, 47, 98, 97, 116, 99, 104, 110, 111, 114, 109, 47, 97, 100, 100, 95, 49, 59, 102, 117, 110, 99, 116, 105, 111, 110, 97, 108, 95, 52, 95, 49, 47, 99, 111, 110, 118, 50, 100, 95, 49, 56, 95, 49, 47, 99, 111, 110, 118, 111, 108, 117, 116, 105, 111, 110, 59, 102, 117, 110, 99, 116, 105, 111, 110, 97, 108, 95, 52, 95, 49, 47, 98, 97, 116, 99, 104, 95, 110, 111, 114, 109, 97, 108, 105, 122, 97, 116, 105, 111, 110, 95, 51, 54, 95, 49, 47, 98, 97, 116, 99, 104, 110, 111, 114, 109, 47, 115, 117, 98, 0, 0, 0, 0, 4, 0, 0, 0, 1, 0, 0, 0, 24, 0, 0, 0, 24, 0, 0, 0, 32, 0, 0, 0, 130, 211, 255, 255, 0, 0, 0, 1, 24, 0, 0, 0, 40, 0, 0, 0, 72, 0, 0, 0, 26, 0, 0, 0, 0, 0, 0, 9, 112, 1, 0, 0, 4, 0, 0, 0, 255, 255, 255, 255, 24, 0, 0, 0, 24, 0, 0, 0, 16, 0, 0, 0, 108, 211, 255, 255, 8, 0, 0, 0, 20, 0, 0, 0, 1, 0, 0, 0, 128, 255, 255, 255, 255, 255, 255, 255, 0, 0, 0, 0, 1, 0, 0, 0, 255, 118, 138, 61, 46, 1, 0, 0, 102, 117, 110, 99, 116, 105, 111, 110, 97, 108, 95, 52, 95, 49, 47, 97, 99, 116, 105, 118, 97, 116, 105, 111, 110, 95, 51, 53, 95, 49, 47, 82, 101, 108, 117, 59, 102, 117, 110, 99, 116, 105, 111, 110, 97, 108, 95, 52, 95, 49, 47, 98, 97, 116, 99, 104, 95, 110, 111, 114, 109, 97, 108, 105, 122, 97, 116, 105, 111, 110, 95, 51, 53, 95, 49, 47, 98, 97, 116, 99, 104, 110, 111, 114, 109, 47, 97, 100, 100, 95, 49, 59, 102, 117, 110, 99, 116, 105, 111, 110, 97, 108, 95, 52, 95, 49, 47, 98, 97, 116, 99, 104, 95, 110, 111, 114, 109, 97, 108, 105, 122, 97, 116, 105, 111, 110, 95, 51, 53, 95, 49, 47, 98, 97, 116, 99, 104, 110, 111, 114, 109, 47, 109, 117, 108, 95, 49, 59, 102, 117, 110, 99, 116, 105, 111, 110, 97, 108, 95, 52, 95, 49, 47, 100, 101, 112, 116, 104, 119, 105, 115, 101, 95, 99, 111, 110, 118, 50, 100, 95, 49, 55, 95, 49, 47, 100, 101, 112, 116, 104, 119, 105, 115, 101, 59, 102, 117, 110, 99, 116, 105, 111, 110, 97, 108, 95, 52, 95, 49, 47, 98, 97, 116, 99, 104, 95, 110, 111, 114, 109, 97, 108, 105, 122, 97, 116, 105, 111, 110, 95, 51, 53, 95, 49, 47, 98, 97, 116, 99, 104, 110, 111, 114, 109, 47, 109, 117, 108, 59, 102, 117, 110, 99, 116, 105, 111, 110, 97, 108, 95, 52, 95, 49, 47, 98, 97, 116, 99, 104, 95, 110, 111, 114, 109, 97, 108, 105, 122, 97, 116, 105, 111, 110, 95, 51, 53, 95, 49, 47, 98, 97, 116, 99, 104, 110, 111, 114, 109, 47, 115, 117, 98, 0, 0, 4, 0, 0, 0, 1, 0, 0, 0, 24, 0, 0, 0, 24, 0, 0, 0, 16, 0, 0, 0, 34, 213, 255, 255, 0, 0, 0, 1, 24, 0, 0, 0, 40, 0, 0, 0, 68, 0, 0, 0, 25, 0, 0, 0, 0, 0, 0, 9, 248, 0, 0, 0, 4, 0, 0, 0, 255, 255, 255, 255, 48, 0, 0, 0, 48, 0, 0, 0, 16, 0, 0, 0, 12, 213, 255, 255, 8, 0, 0, 0, 16, 0, 0, 0, 1, 0, 0, 0, 128, 255, 255, 255, 255, 255, 255, 255, 1, 0, 0, 0, 44, 207, 157, 61, 184, 0, 0, 0, 102, 117, 110, 99, 116, 105, 111, 110, 97, 108, 95, 52, 95, 49, 47, 97, 99, 116, 105, 118, 97, 116, 105, 111, 110, 95, 51, 52, 95, 49, 47, 82, 101, 108, 117, 59, 102, 117, 110, 99, 116, 105, 111, 110, 97, 108, 95, 52, 95, 49, 47, 98, 97, 116, 99, 104, 95, 110, 111, 114, 109, 97, 108, 105, 122, 97, 116, 105, 111, 110, 95, 51, 52, 95, 49, 47, 98, 97, 116, 99, 104, 110, 111, 114, 109, 47, 97, 100, 100, 95, 49, 59, 102, 117, 110, 99, 116, 105, 111, 110, 97, 108, 95, 52, 95, 49, 47, 99, 111, 110, 118, 50, 100, 95, 49, 55, 95, 49, 47, 99, 111, 110, 118, 111, 108, 117, 116, 105, 111, 110, 59, 102, 117, 110, 99, 116, 105, 111, 110, 97, 108, 95, 52, 95, 49, 47, 98, 97, 116, 99, 104, 95, 110, 111, 114, 109, 97, 108, 105, 122, 97, 116, 105, 111, 110, 95, 51, 52, 95, 49, 47, 98, 97, 116, 99, 104, 110, 111, 114, 109, 47, 115, 117, 98, 0, 0, 0, 0, 4, 0, 0, 0, 1, 0, 0, 0, 48, 0, 0, 0, 48, 0, 0, 0, 16, 0, 0, 0, 74, 214, 255, 255, 0, 0, 0, 1, 24, 0, 0, 0, 40, 0, 0, 0, 72, 0, 0, 0, 24, 0, 0, 0, 0, 0, 0, 9, 112, 1, 0, 0, 4, 0, 0, 0, 255, 255, 255, 255, 48, 0, 0, 0, 48, 0, 0, 0, 8, 0, 0, 0, 52, 214, 255, 255, 8, 0, 0, 0, 20, 0, 0, 0, 1, 0, 0, 0, 128, 255, 255, 255, 255, 255, 255, 255, 0, 0, 0, 0, 1, 0, 0, 0, 143, 193, 109, 61, 46, 1, 0, 0, 102, 117, 110, 99, 116, 105, 111, 110, 97, 108, 95, 52, 95, 49, 47, 97, 99, 116, 105, 118, 97, 116, 105, 111, 110, 95, 51, 51, 95, 49, 47, 82, 101, 108, 117, 59, 102, 117, 110, 99, 116, 105, 111, 110, 97, 108, 95, 52, 95, 49, 47, 98, 97, 116, 99, 104, 95, 110, 111, 114, 109, 97, 108, 105, 122, 97, 116, 105, 111, 110, 95, 51, 51, 95, 49, 47, 98, 97, 116, 99, 104, 110, 111, 114, 109, 47, 97, 100, 100, 95, 49, 59, 102, 117, 110, 99, 116, 105, 111, 110, 97, 108, 95, 52, 95, 49, 47, 98, 97, 116, 99, 104, 95, 110, 111, 114, 109, 97, 108, 105, 122, 97, 116, 105, 111, 110, 95, 51, 51, 95, 49, 47, 98, 97, 116, 99, 104, 110, 111, 114, 109, 47, 109, 117, 108, 95, 49, 59, 102, 117, 110, 99, 116, 105, 111, 110, 97, 108, 95, 52, 95, 49, 47, 100, 101, 112, 116, 104, 119, 105, 115, 101, 95, 99, 111, 110, 118, 50, 100, 95, 49, 54, 95, 49, 47, 100, 101, 112, 116, 104, 119, 105, 115, 101, 59, 102, 117, 110, 99, 116, 105, 111, 110, 97, 108, 95, 52, 95, 49, 47, 98, 97, 116, 99, 104, 95, 110, 111, 114, 109, 97, 108, 105, 122, 97, 116, 105, 111, 110, 95, 51, 51, 95, 49, 47, 98, 97, 116, 99, 104, 110, 111, 114, 109, 47, 109, 117, 108, 59, 102, 117, 110, 99, 116, 105, 111, 110, 97, 108, 95, 52, 95, 49, 47, 98, 97, 116, 99, 104, 95, 110, 111, 114, 109, 97, 108, 105, 122, 97, 116, 105, 111, 110, 95, 51, 51, 95, 49, 47, 98, 97, 116, 99, 104, 110, 111, 114, 109, 47, 115, 117, 98, 0, 0, 4, 0, 0, 0, 1, 0, 0, 0, 48, 0, 0, 0, 48, 0, 0, 0, 8, 0, 0, 0, 234, 215, 255, 255, 0, 0, 0, 1, 24, 0, 0, 0, 40, 0, 0, 0, 68, 0, 0, 0, 23, 0, 0, 0, 0, 0, 0, 9, 248, 0, 0, 0, 4, 0, 0, 0, 255, 255, 255, 255, 48, 0, 0, 0, 48, 0, 0, 0, 8, 0, 0, 0, 212, 215, 255, 255, 8, 0, 0, 0, 16, 0, 0, 0, 1, 0, 0, 0, 128, 255, 255, 255, 255, 255, 255, 255, 1, 0, 0, 0, 57, 227, 73, 61, 185, 0, 0, 0, 102, 117, 110, 99, 116, 105, 111, 110, 97, 108, 95, 52, 95, 49, 47, 97, 99, 116, 105, 118, 97, 116, 105, 111, 110, 95, 51, 50, 95, 49, 47, 82, 101, 108, 117, 59, 102, 117, 110, 99, 116, 105, 111, 110, 97, 108, 95, 52, 95, 49, 47, 98, 97, 116, 99, 104, 95, 110, 111, 114, 109, 97, 108, 105, 122, 97, 116, 105, 111, 110, 95, 51, 50, 95, 49, 47, 98, 97, 116, 99, 104, 110, 111, 114, 109, 47, 97, 100, 100, 95, 49, 59, 102, 117, 110, 99, 116, 105, 111, 110, 97, 108, 95, 52, 95, 49, 47, 99, 111, 110, 118, 50, 100, 95, 49, 54, 95, 49, 47, 99, 111, 110, 118, 111, 108, 117, 116, 105, 111, 110, 59, 102, 117, 110, 99, 116, 105, 111, 110, 97, 108, 95, 52, 95, 49, 47, 98, 97, 116, 99, 104, 95, 110, 111, 114, 109, 97, 108, 105, 122, 97, 116, 105, 111, 110, 95, 51, 50, 95, 49, 47, 98, 97, 116, 99, 104, 110, 111, 114, 109, 47, 115, 117, 98, 49, 0, 0, 0, 4, 0, 0, 0, 1, 0, 0, 0, 48, 0, 0, 0, 48, 0, 0, 0, 8, 0, 0, 0, 106, 217, 255, 255, 0, 0, 0, 1, 20, 0, 0, 0, 136, 0, 0, 0, 22, 0, 0, 0, 0, 0, 0, 9, 148, 0, 0, 0, 228, 216, 255, 255, 8, 0, 0, 0, 76, 0, 0, 0, 8, 0, 0, 0, 0, 0, 0, 0, 0, 0, 0, 0, 0, 0, 0, 0, 0, 0, 0, 0, 0, 0, 0, 0, 0, 0, 0, 0, 0, 0, 0, 0, 0, 0, 0, 0, 0, 0, 0, 0, 0, 0, 0, 0, 0, 0, 0, 0, 0, 0, 0, 0, 0, 0, 0, 0, 0, 0, 0, 0, 0, 0, 0, 0, 0, 0, 0, 0, 0, 0, 0, 0, 8, 0, 0, 0, 93, 53, 137, 60, 7, 236, 153, 60, 86, 68, 135, 61, 231, 108, 251, 60, 151, 212, 6, 61, 70, 72, 89, 60, 14, 52, 240, 60, 175, 24, 198, 60, 19, 0, 0, 0, 116, 102, 108, 46, 112, 115, 101, 117, 100, 111, 95, 113, 99, 111, 110, 115, 116, 49, 57, 0, 4, 0, 0, 0, 8, 0, 0, 0, 3, 0, 0, 0, 3, 0, 0, 0, 1, 0, 0, 0, 42, 218, 255, 255, 0, 0, 0, 1, 20, 0, 0, 0, 136, 0, 0, 0, 21, 0, 0, 0, 0, 0, 0, 2, 148, 0, 0, 0, 164, 217, 255, 255, 8, 0, 0, 0, 76, 0, 0, 0, 8, 0, 0, 0, 0, 0, 0, 0, 0, 0, 0, 0, 0, 0, 0, 0, 0, 0, 0, 0, 0, 0, 0, 0, 0, 0, 0, 0, 0, 0, 0, 0, 0, 0, 0, 0, 0, 0, 0, 0, 0, 0, 0, 0, 0, 0, 0, 0, 0, 0, 0, 0, 0, 0, 0, 0, 0, 0, 0, 0, 0, 0, 0, 0, 0, 0, 0, 0, 0, 0, 0, 0, 8, 0, 0, 0, 25, 191, 137, 56, 139, 134, 154, 56, 31, 204, 135, 57, 75, 105, 252, 56, 240, 91, 7, 57, 100, 34, 90, 56, 47, 37, 241, 56, 139, 223, 198, 56, 19, 0, 0, 0, 116, 102, 108, 46, 112, 115, 101, 117, 100, 111, 95, 113, 99, 111, 110, 115, 116, 49, 56, 0, 1, 0, 0, 0, 8, 0, 0, 0, 222, 218, 255, 255, 0, 0, 0, 1, 20, 0, 0, 0, 140, 0, 0, 0, 20, 0, 0, 0, 0, 0, 0, 9, 152, 0, 0, 0, 186, 242, 255, 255, 3, 0, 0, 0, 8, 0, 0, 0, 76, 0, 0, 0, 8, 0, 0, 0, 0, 0, 0, 0, 0, 0, 0, 0, 0, 0, 0, 0, 0, 0, 0, 0, 0, 0, 0, 0, 0, 0, 0, 0, 0, 0, 0, 0, 0, 0, 0, 0, 0, 0, 0, 0, 0, 0, 0, 0, 0, 0, 0, 0, 0, 0, 0, 0, 0, 0, 0, 0, 0, 0, 0, 0, 0, 0, 0, 0, 0, 0, 0, 0, 0, 0, 0, 0, 8, 0, 0, 0, 74, 254, 62, 60, 55, 99, 147, 60, 91, 76, 35, 60, 36, 27, 39, 60, 240, 62, 20, 60, 173, 250, 112, 60, 174, 80, 68, 60, 80, 83, 112, 60, 19, 0, 0, 0, 116, 102, 108, 46, 112, 115, 101, 117, 100, 111, 95, 113, 99, 111, 110, 115, 116, 49, 55, 0, 4, 0, 0, 0, 1, 0, 0, 0, 3, 0, 0, 0, 3, 0, 0, 0, 8, 0, 0, 0, 162, 219, 255, 255, 0, 0, 0, 1, 20, 0, 0, 0, 132, 0, 0, 0, 19, 0, 0, 0, 0, 0, 0, 2, 144, 0, 0, 0, 28, 219, 255, 255, 8, 0, 0, 0, 72, 0, 0, 0, 8, 0, 0, 0, 0, 0, 0, 0, 0, 0, 0, 0, 0, 0, 0, 0, 0, 0, 0, 0, 0, 0, 0, 0, 0, 0, 0, 0, 0, 0, 0, 0, 0, 0, 0, 0, 0, 0, 0, 0, 0, 0, 0, 0, 0, 0, 0, 0, 0, 0, 0, 0, 0, 0, 0, 0, 0, 0, 0, 0, 0, 0, 0, 0, 0, 0, 0, 0, 8, 0, 0, 0, 46, 159, 22, 58, 112, 119, 104, 58, 229, 199, 0, 58, 162, 200, 3, 58, 255, 209, 233, 57, 182, 10, 62, 58, 152, 209, 26, 58, 185, 134, 61, 58, 19, 0, 0, 0, 116, 102, 108, 46, 112, 115, 101, 117, 100, 111, 95, 113, 99, 111, 110, 115, 116, 49, 54, 0, 1, 0, 0, 0, 8, 0, 0, 0, 82, 220, 255, 255, 0, 0, 0, 1, 20, 0, 0, 0, 232, 0, 0, 0, 18, 0, 0, 0, 0, 0, 0, 9, 244, 0, 0, 0, 204, 219, 255, 255, 8, 0, 0, 0, 140, 0, 0, 0, 16, 0, 0, 0, 0, 0, 0, 0, 0, 0, 0, 0, 0, 0, 0, 0, 0, 0, 0, 0, 0, 0, 0, 0, 0, 0, 0, 0, 0, 0, 0, 0, 0, 0, 0, 0, 0, 0, 0, 0, 0, 0, 0, 0, 0, 0, 0, 0, 0, 0, 0, 0, 0, 0, 0, 0, 0, 0, 0, 0, 0, 0, 0, 0, 0, 0, 0, 0, 0, 0, 0, 0, 0, 0, 0, 0, 0, 0, 0, 0, 0, 0, 0, 0, 0, 0, 0, 0, 0, 0, 0, 0, 0, 0, 0, 0, 0, 0, 0, 0, 0, 0, 0, 0, 0, 0, 0, 0, 0, 0, 0, 0, 0, 0, 0, 0, 0, 0, 0, 0, 0, 0, 0, 0, 0, 0, 0, 0, 0, 0, 0, 0, 0, 0, 0, 0, 16, 0, 0, 0, 28, 255, 238, 59, 186, 226, 227, 59, 82, 110, 139, 59, 82, 177, 107, 60, 115, 55, 4, 60, 254, 45, 6, 60, 222, 165, 37, 60, 188, 113, 37, 60, 16, 0, 195, 59, 86, 85, 207, 59, 11, 227, 196, 59, 38, 12, 198, 59, 165, 179, 48, 60, 160, 5, 36, 60, 207, 192, 179, 59, 185, 118, 151, 59, 19, 0, 0, 0, 116, 102, 108, 46, 112, 115, 101, 117, 100, 111, 95, 113, 99, 111, 110, 115, 116, 49, 53, 0, 4, 0, 0, 0, 16, 0, 0, 0, 1, 0, 0, 0, 1, 0, 0, 0, 8, 0, 0, 0, 114, 221, 255, 255, 0, 0, 0, 1, 20, 0, 0, 0, 232, 0, 0, 0, 17, 0, 0, 0, 0, 0, 0, 2, 244, 0, 0, 0, 236, 220, 255, 255, 8, 0, 0, 0, 140, 0, 0, 0, 16, 0, 0, 0, 0, 0, 0, 0, 0, 0, 0, 0, 0, 0, 0, 0, 0, 0, 0, 0, 0, 0, 0, 0, 0, 0, 0, 0, 0, 0, 0, 0, 0, 0, 0, 0, 0, 0, 0, 0, 0, 0, 0, 0, 0, 0, 0, 0, 0, 0, 0, 0, 0, 0, 0, 0, 0, 0, 0, 0, 0, 0, 0, 0, 0, 0, 0, 0, 0, 0, 0, 0, 0, 0, 0, 0, 0, 0, 0, 0, 0, 0, 0, 0, 0, 0, 0, 0, 0, 0, 0, 0, 0, 0, 0, 0, 0, 0, 0, 0, 0, 0, 0, 0, 0, 0, 0, 0, 0, 0, 0, 0, 0, 0, 0, 0, 0, 0, 0, 0, 0, 0, 0, 0, 0, 0, 0, 0, 0, 0, 0, 0, 0, 0, 0, 0, 16, 0, 0, 0, 225, 246, 221, 57, 51, 165, 211, 57, 142, 126, 129, 57, 93, 229, 90, 58, 154, 150, 245, 57, 16, 60, 249, 57, 205, 215, 25, 58, 98, 167, 25, 58, 127, 26, 181, 57, 196, 142, 192, 57, 14, 219, 182, 57, 253, 238, 183, 57, 234, 27, 36, 58, 57, 85, 24, 58, 104, 241, 166, 57, 110, 171, 140, 57, 19, 0, 0, 0, 116, 102, 108, 46, 112, 115, 101, 117, 100, 111, 95, 113, 99, 111, 110, 115, 116, 49, 52, 0, 1, 0, 0, 0, 16, 0, 0, 0, 134, 222, 255, 255, 0, 0, 0, 1, 20, 0, 0, 0, 236, 0, 0, 0, 16, 0, 0, 0, 0, 0, 0, 9, 248, 0, 0, 0, 98, 246, 255, 255, 3, 0, 0, 0, 8, 0, 0, 0, 140, 0, 0, 0, 16, 0, 0, 0, 0, 0, 0, 0, 0, 0, 0, 0, 0, 0, 0, 0, 0, 0, 0, 0, 0, 0, 0, 0, 0, 0, 0, 0, 0, 0, 0, 0, 0, 0, 0, 0, 0, 0, 0, 0, 0, 0, 0, 0, 0, 0, 0, 0, 0, 0, 0, 0, 0, 0, 0, 0, 0, 0, 0, 0, 0, 0, 0, 0, 0, 0, 0, 0, 0, 0, 0, 0, 0, 0, 0, 0, 0, 0, 0, 0, 0, 0, 0, 0, 0, 0, 0, 0, 0, 0, 0, 0, 0, 0, 0, 0, 0, 0, 0, 0, 0, 0, 0, 0, 0, 0, 0, 0, 0, 0, 0, 0, 0, 0, 0, 0, 0, 0, 0, 0, 0, 0, 0, 0, 0, 0, 0, 0, 0, 0, 0, 0, 0, 0, 0, 0, 16, 0, 0, 0, 19, 71, 73, 60, 85, 48, 130, 60, 69, 25, 154, 60, 195, 162, 87, 59, 5, 33, 8, 60, 146, 235, 205, 59, 55, 177, 167, 59, 184, 237, 102, 59, 164, 212, 186, 59, 85, 31, 100, 60, 80, 184, 224, 59, 166, 145, 65, 60, 239, 237, 205, 59, 7, 185, 194, 59, 94, 249, 190, 59, 62, 87, 222, 59, 19, 0, 0, 0, 116, 102, 108, 46, 112, 115, 101, 117, 100, 111, 95, 113, 99, 111, 110, 115, 116, 49, 51, 0, 4, 0, 0, 0, 1, 0, 0, 0, 3, 0, 0, 0, 3, 0, 0, 0, 16, 0, 0, 0, 170, 223, 255, 255, 0, 0, 0, 1, 20, 0, 0, 0, 228, 0, 0, 0, 15, 0, 0, 0, 0, 0, 0, 2, 240, 0, 0, 0, 36, 223, 255, 255, 8, 0, 0, 0, 136, 0, 0, 0, 16, 0, 0, 0, 0, 0, 0, 0, 0, 0, 0, 0, 0, 0, 0, 0, 0, 0, 0, 0, 0, 0, 0, 0, 0, 0, 0, 0, 0, 0, 0, 0, 0, 0, 0, 0, 0, 0, 0, 0, 0, 0, 0, 0, 0, 0, 0, 0, 0, 0, 0, 0, 0, 0, 0, 0, 0, 0, 0, 0, 0, 0, 0, 0, 0, 0, 0, 0, 0, 0, 0, 0, 0, 0, 0, 0, 0, 0, 0, 0, 0, 0, 0, 0, 0, 0, 0, 0, 0, 0, 0, 0, 0, 0, 0, 0, 0, 0, 0, 0, 0, 0, 0, 0, 0, 0, 0, 0, 0, 0, 0, 0, 0, 0, 0, 0, 0, 0, 0, 0, 0, 0, 0, 0, 0, 0, 0, 0, 0, 0, 0, 0, 16, 0, 0, 0, 243, 38, 120, 58, 255, 129, 160, 58, 104, 252, 189, 58, 83, 237, 132, 57, 212, 212, 39, 58, 59, 224, 253, 57, 200, 190, 206, 57, 172, 90, 142, 57, 53, 87, 230, 57, 212, 159, 140, 58, 229, 134, 10, 58, 242, 165, 110, 58, 37, 227, 253, 57, 29, 18, 240, 57, 246, 114, 235, 57, 112, 15, 9, 58, 19, 0, 0, 0, 116, 102, 108, 46, 112, 115, 101, 117, 100, 111, 95, 113, 99, 111, 110, 115, 116, 49, 50, 0, 1, 0, 0, 0, 16, 0, 0, 0, 186, 224, 255, 255, 0, 0, 0, 1, 20, 0, 0, 0, 168, 1, 0, 0, 14, 0, 0, 0, 0, 0, 0, 9, 180, 1, 0, 0, 52, 224, 255, 255, 8, 0, 0, 0, 12, 1, 0, 0, 32, 0, 0, 0, 0, 0, 0, 0, 0, 0, 0, 0, 0, 0, 0, 0, 0, 0, 0, 0, 0, 0, 0, 0, 0, 0, 0, 0, 0, 0, 0, 0, 0, 0, 0, 0, 0, 0, 0, 0, 0, 0, 0, 0, 0, 0, 0, 0, 0, 0, 0, 0, 0, 0, 0, 0, 0, 0, 0, 0, 0, 0, 0, 0, 0, 0, 0, 0, 0, 0, 0, 0, 0, 0, 0, 0, 0, 0, 0, 0, 0, 0, 0, 0, 0, 0, 0, 0, 0, 0, 0, 0, 0, 0, 0, 0, 0, 0, 0, 0, 0, 0, 0, 0, 0, 0, 0, 0, 0, 0, 0, 0, 0, 0, 0, 0, 0, 0, 0, 0, 0, 0, 0, 0, 0, 0, 0, 0, 0, 0, 0, 0, 0, 0, 0, 0, 0, 0, 0, 0, 0, 0, 0, 0, 0, 0, 0, 0, 0, 0, 0, 0, 0, 0, 0, 0, 0, 0, 0, 0, 0, 0, 0, 0, 0, 0, 0, 0, 0, 0, 0, 0, 0, 0, 0, 0, 0, 0, 0, 0, 0, 0, 0, 0, 0, 0, 0, 0, 0, 0, 0, 0, 0, 0, 0, 0, 0, 0, 0, 0, 0, 0, 0, 0, 0, 0, 0, 0, 0, 0, 0, 0, 0, 0, 0, 0, 0, 0, 0, 0, 0, 0, 0, 0, 0, 0, 0, 0, 0, 0, 0, 0, 0, 0, 0, 0, 0, 0, 0, 0, 0, 0, 0, 0, 0, 0, 0, 0, 0, 0, 0, 0, 0, 0, 0, 0, 0, 0, 0, 0, 0, 0, 0, 0, 32, 0, 0, 0, 50, 198, 161, 59, 221, 91, 172, 59, 109, 14, 159, 59, 77, 53, 193, 59, 227, 254, 38, 60, 33, 211, 220, 59, 87, 219, 201, 59, 249, 132, 160, 59, 44, 124, 193, 59, 84, 35, 40, 60, 11, 120, 206, 59, 253, 218, 232, 59, 187, 4, 239, 59, 179, 143, 170, 59, 42, 97, 23, 60, 93, 196, 174, 59, 118, 142, 195, 59, 193, 177, 182, 59, 68, 64, 220, 58, 184, 106, 56, 59, 255, 239, 196, 59, 191, 181, 131, 59, 42, 127, 226, 59, 68, 199, 131, 59, 12, 214, 13, 60, 65, 122, 181, 59, 8, 176, 232, 59, 239, 115, 150, 59, 56, 185, 67, 59, 206, 44, 15, 60, 103, 89, 196, 59, 152, 68, 148, 59, 19, 0, 0, 0, 116, 102, 108, 46, 112, 115, 101, 117, 100, 111, 95, 113, 99, 111, 110, 115, 116, 49, 49, 0, 4, 0, 0, 0, 32, 0, 0, 0, 1, 0, 0, 0, 1, 0, 0, 0, 16, 0, 0, 0, 154, 226, 255, 255, 0, 0, 0, 1, 20, 0, 0, 0, 168, 1, 0, 0, 13, 0, 0, 0, 0, 0, 0, 2, 180, 1, 0, 0, 20, 226, 255, 255, 8, 0, 0, 0, 12, 1, 0, 0, 32, 0, 0, 0, 0, 0, 0, 0, 0, 0, 0, 0, 0, 0, 0, 0, 0, 0, 0, 0, 0, 0, 0, 0, 0, 0, 0, 0, 0, 0, 0, 0, 0, 0, 0, 0, 0, 0, 0, 0, 0, 0, 0, 0, 0, 0, 0, 0, 0, 0, 0, 0, 0, 0, 0, 0, 0, 0, 0, 0, 0, 0, 0, 0, 0, 0, 0, 0, 0, 0, 0, 0, 0, 0, 0, 0, 0, 0, 0, 0, 0, 0, 0, 0, 0, 0, 0, 0, 0, 0, 0, 0, 0, 0, 0, 0, 0, 0, 0, 0, 0, 0, 0, 0, 0, 0, 0, 0, 0, 0, 0, 0, 0, 0, 0, 0, 0, 0, 0, 0, 0, 0, 0, 0, 0, 0, 0, 0, 0, 0, 0, 0, 0, 0, 0, 0, 0, 0, 0, 0, 0, 0, 0, 0, 0, 0, 0, 0, 0, 0, 0, 0, 0, 0, 0, 0, 0, 0, 0, 0, 0, 0, 0, 0, 0, 0, 0, 0, 0, 0, 0, 0, 0, 0, 0, 0, 0, 0, 0, 0, 0, 0, 0, 0, 0, 0, 0, 0, 0, 0, 0, 0, 0, 0, 0, 0, 0, 0, 0, 0, 0, 0, 0, 0, 0, 0, 0, 0, 0, 0, 0, 0, 0, 0, 0, 0, 0, 0, 0, 0, 0, 0, 0, 0, 0, 0, 0, 0, 0, 0, 0, 0, 0, 0, 0, 0, 0, 0, 0, 0, 0, 0, 0, 0, 0, 0, 0, 0, 0, 0, 0, 0, 0, 0, 0, 0, 0, 0, 0, 0, 0, 0, 0, 0, 32, 0, 0, 0, 19, 0, 175, 57, 70, 115, 186, 57, 108, 15, 172, 57, 21, 1, 209, 57, 12, 166, 52, 58, 234, 224, 238, 57, 34, 92, 218, 57, 151, 164, 173, 57, 191, 77, 209, 57, 102, 226, 53, 58, 94, 89, 223, 57, 147, 228, 251, 57, 167, 71, 1, 58, 125, 129, 184, 57, 124, 193, 35, 58, 45, 14, 189, 57, 100, 139, 211, 57, 124, 161, 197, 57, 11, 66, 238, 56, 128, 126, 71, 57, 213, 9, 213, 57, 100, 122, 142, 57, 170, 3, 245, 57, 88, 141, 142, 57, 161, 110, 25, 58, 132, 80, 196, 57, 26, 182, 251, 57, 220, 192, 162, 57, 165, 185, 83, 57, 105, 225, 26, 58, 237, 102, 212, 57, 202, 99, 160, 57, 19, 0, 0, 0, 116, 102, 108, 46, 112, 115, 101, 117, 100, 111, 95, 113, 99, 111, 110, 115, 116, 49, 48, 0, 1, 0, 0, 0, 32, 0, 0, 0, 110, 228, 255, 255, 0, 0, 0, 1, 20, 0, 0, 0, 172, 1, 0, 0, 12, 0, 0, 0, 0, 0, 0, 9, 184, 1, 0, 0, 74, 252, 255, 255, 3, 0, 0, 0, 8, 0, 0, 0, 12, 1, 0, 0, 32, 0, 0, 0, 0, 0, 0, 0, 0, 0, 0, 0, 0, 0, 0, 0, 0, 0, 0, 0, 0, 0, 0, 0, 0, 0, 0, 0, 0, 0, 0, 0, 0, 0, 0, 0, 0, 0, 0, 0, 0, 0, 0, 0, 0, 0, 0, 0, 0, 0, 0, 0, 0, 0, 0, 0, 0, 0, 0, 0, 0, 0, 0, 0, 0, 0, 0, 0, 0, 0, 0, 0, 0, 0, 0, 0, 0, 0, 0, 0, 0, 0, 0, 0, 0, 0, 0, 0, 0, 0, 0, 0, 0, 0, 0, 0, 0, 0, 0, 0, 0, 0, 0, 0, 0, 0, 0, 0, 0, 0, 0, 0, 0, 0, 0, 0, 0, 0, 0, 0, 0, 0, 0, 0, 0, 0, 0, 0, 0, 0, 0, 0, 0, 0, 0, 0, 0, 0, 0, 0, 0, 0, 0, 0, 0, 0, 0, 0, 0, 0, 0, 0, 0, 0, 0, 0, 0, 0, 0, 0, 0, 0, 0, 0, 0, 0, 0, 0, 0, 0, 0, 0, 0, 0, 0, 0, 0, 0, 0, 0, 0, 0, 0, 0, 0, 0, 0, 0, 0, 0, 0, 0, 0, 0, 0, 0, 0, 0, 0, 0, 0, 0, 0, 0, 0, 0, 0, 0, 0, 0, 0, 0, 0, 0, 0, 0, 0, 0, 0, 0, 0, 0, 0, 0, 0, 0, 0, 0, 0, 0, 0, 0, 0, 0, 0, 0, 0, 0, 0, 0, 0, 0, 0, 0, 0, 0, 0, 0, 0, 0, 0, 0, 0, 0, 0, 0, 0, 0, 0, 0, 0, 0, 0, 0, 32, 0, 0, 0, 96, 220, 49, 60, 57, 191, 229, 59, 29, 144, 44, 60, 190, 138, 18, 60, 94, 198, 250, 59, 116, 146, 253, 59, 251, 67, 48, 60, 229, 144, 3, 60, 74, 11, 1, 60, 236, 181, 38, 60, 184, 52, 39, 60, 66, 114, 16, 60, 161, 226, 141, 59, 8, 119, 5, 60, 131, 171, 245, 59, 100, 89, 30, 60, 146, 49, 191, 59, 202, 116, 13, 60, 204, 190, 29, 60, 152, 48, 66, 60, 32, 81, 237, 59, 111, 132, 175, 60, 182, 42, 232, 59, 48, 196, 140, 60, 112, 32, 203, 59, 239, 4, 202, 59, 2, 81, 195, 59, 144, 193, 170, 59, 188, 130, 153, 60, 201, 74, 94, 60, 5, 126, 218, 59, 244, 200, 72, 60, 18, 0, 0, 0, 116, 102, 108, 46, 112, 115, 101, 117, 100, 111, 95, 113, 99, 111, 110, 115, 116, 57, 0, 0, 4, 0, 0, 0, 1, 0, 0, 0, 3, 0, 0, 0, 3, 0, 0, 0, 32, 0, 0, 0, 82, 230, 255, 255, 0, 0, 0, 1, 20, 0, 0, 0, 164, 1, 0, 0, 11, 0, 0, 0, 0, 0, 0, 2, 176, 1, 0, 0, 204, 229, 255, 255, 8, 0, 0, 0, 8, 1, 0, 0, 32, 0, 0, 0, 0, 0, 0, 0, 0, 0, 0, 0, 0, 0, 0, 0, 0, 0, 0, 0, 0, 0, 0, 0, 0, 0, 0, 0, 0, 0, 0, 0, 0, 0, 0, 0, 0, 0, 0, 0, 0, 0, 0, 0, 0, 0, 0, 0, 0, 0, 0, 0, 0, 0, 0, 0, 0, 0, 0, 0, 0, 0, 0, 0, 0, 0, 0, 0, 0, 0, 0, 0, 0, 0, 0, 0, 0, 0, 0, 0, 0, 0, 0, 0, 0, 0, 0, 0, 0, 0, 0, 0, 0, 0, 0, 0, 0, 0, 0, 0, 0, 0, 0, 0, 0, 0, 0, 0, 0, 0, 0, 0, 0, 0, 0, 0, 0, 0, 0, 0, 0, 0, 0, 0, 0, 0, 0, 0, 0, 0, 0, 0, 0, 0, 0, 0, 0, 0, 0, 0, 0, 0, 0, 0, 0, 0, 0, 0, 0, 0, 0, 0, 0, 0, 0, 0, 0, 0, 0, 0, 0, 0, 0, 0, 0, 0, 0, 0, 0, 0, 0, 0, 0, 0, 0, 0, 0, 0, 0, 0, 0, 0, 0, 0, 0, 0, 0, 0, 0, 0, 0, 0, 0, 0, 0, 0, 0, 0, 0, 0, 0, 0, 0, 0, 0, 0, 0, 0, 0, 0, 0, 0, 0, 0, 0, 0, 0, 0, 0, 0, 0, 0, 0, 0, 0, 0, 0, 0, 0, 0, 0, 0, 0, 0, 0, 0, 0, 0, 0, 0, 0, 0, 0, 0, 0, 0, 0, 0, 0, 0, 0, 0, 0, 0, 0, 0, 0, 0, 0, 0, 32, 0, 0, 0, 152, 11, 22, 58, 37, 209, 193, 57, 112, 147, 17, 58, 171, 63, 247, 57, 108, 142, 211, 57, 133, 234, 213, 57, 17, 179, 20, 58, 30, 251, 221, 57, 215, 185, 217, 57, 140, 163, 12, 58, 132, 14, 13, 58, 128, 182, 243, 57, 79, 100, 111, 57, 87, 47, 225, 57, 242, 63, 207, 57, 198, 149, 5, 58, 0, 75, 161, 57, 252, 170, 238, 57, 91, 19, 5, 58, 18, 210, 35, 58, 251, 51, 200, 57, 122, 17, 148, 58, 192, 219, 195, 57, 5, 129, 109, 58, 31, 92, 171, 57, 244, 108, 170, 57, 97, 197, 164, 57, 57, 13, 144, 57, 212, 128, 129, 58, 43, 135, 59, 58, 136, 82, 184, 57, 99, 98, 41, 58, 18, 0, 0, 0, 116, 102, 108, 46, 112, 115, 101, 117, 100, 111, 95, 113, 99, 111, 110, 115, 116, 56, 0, 0, 1, 0, 0, 0, 32, 0, 0, 0, 34, 232, 255, 255, 0, 0, 0, 1, 40, 0, 0, 0, 192, 1, 0, 0, 10, 0, 0, 0, 0, 0, 0, 9, 204, 1, 0, 0, 0, 0, 18, 0, 16, 0, 0, 0, 0, 0, 12, 0, 8, 0, 0, 0, 0, 0, 4, 0, 18, 0, 0, 0, 3, 0, 0, 0, 8, 0, 0, 0, 12, 1, 0, 0, 32, 0, 0, 0, 0, 0, 0, 0, 0, 0, 0, 0, 0, 0, 0, 0, 0, 0, 0, 0, 0, 0, 0, 0, 0, 0, 0, 0, 0, 0, 0, 0, 0, 0, 0, 0, 0, 0, 0, 0, 0, 0, 0, 0, 0, 0, 0, 0, 0, 0, 0, 0, 0, 0, 0, 0, 0, 0, 0, 0, 0, 0, 0, 0, 0, 0, 0, 0, 0, 0, 0, 0, 0, 0, 0, 0, 0, 0, 0, 0, 0, 0, 0, 0, 0, 0, 0, 0, 0, 0, 0, 0, 0, 0, 0, 0, 0, 0, 0, 0, 0, 0, 0, 0, 0, 0, 0, 0, 0, 0, 0, 0, 0, 0, 0, 0, 0, 0, 0, 0, 0, 0, 0, 0, 0, 0, 0, 0, 0, 0, 0, 0, 0, 0, 0, 0, 0, 0, 0, 0, 0, 0, 0, 0, 0, 0, 0, 0, 0, 0, 0, 0, 0, 0, 0, 0, 0, 0, 0, 0, 0, 0, 0, 0, 0, 0, 0, 0, 0, 0, 0, 0, 0, 0, 0, 0, 0, 0, 0, 0, 0, 0, 0, 0, 0, 0, 0, 0, 0, 0, 0, 0, 0, 0, 0, 0, 0, 0, 0, 0, 0, 0, 0, 0, 0, 0, 0, 0, 0, 0, 0, 0, 0, 0, 0, 0, 0, 0, 0, 0, 0, 0, 0, 0, 0, 0, 0, 0, 0, 0, 0, 0, 0, 0, 0, 0, 0, 0, 0, 0, 0, 0, 0, 0, 0, 0, 0, 0, 0, 0, 0, 0, 0, 0, 0, 0, 0, 0, 0, 0, 0, 0, 0, 0, 32, 0, 0, 0, 249, 84, 1, 60, 144, 110, 177, 59, 169, 210, 136, 59, 94, 227, 0, 60, 151, 25, 11, 60, 17, 154, 165, 59, 193, 60, 188, 59, 248, 247, 98, 59, 97, 42, 161, 59, 168, 26, 19, 60, 7, 107, 193, 59, 11, 155, 47, 60, 67, 189, 199, 60, 103, 137, 193, 59, 119, 216, 216, 59, 49, 177, 142, 59, 78, 218, 102, 60, 20, 168, 172, 60, 127, 74, 215, 59, 209, 138, 9, 60, 218, 97, 14, 60, 220, 195, 197, 59, 236, 71, 44, 60, 251, 84, 5, 60, 241, 174, 188, 59, 149, 216, 76, 60, 198, 101, 156, 59, 248, 228, 4, 60, 138, 145, 164, 59, 6, 62, 156, 59, 193, 3, 173, 59, 173, 52, 221, 59, 18, 0, 0, 0, 116, 102, 108, 46, 112, 115, 101, 117, 100, 111, 95, 113, 99, 111, 110, 115, 116, 55, 0, 0, 4, 0, 0, 0, 1, 0, 0, 0, 3, 0, 0, 0, 3, 0, 0, 0, 32, 0, 0, 0, 26, 234, 255, 255, 0, 0, 0, 1, 20, 0, 0, 0, 164, 1, 0, 0, 9, 0, 0, 0, 0, 0, 0, 2, 176, 1, 0, 0, 148, 233, 255, 255, 8, 0, 0, 0, 8, 1, 0, 0, 32, 0, 0, 0, 0, 0, 0, 0, 0, 0, 0, 0, 0, 0, 0, 0, 0, 0, 0, 0, 0, 0, 0, 0, 0, 0, 0, 0, 0, 0, 0, 0, 0, 0, 0, 0, 0, 0, 0, 0, 0, 0, 0, 0, 0, 0, 0, 0, 0, 0, 0, 0, 0, 0, 0, 0, 0, 0, 0, 0, 0, 0, 0, 0, 0, 0, 0, 0, 0, 0, 0, 0, 0, 0, 0, 0, 0, 0, 0, 0, 0, 0, 0, 0, 0, 0, 0, 0, 0, 0, 0, 0, 0, 0, 0, 0, 0, 0, 0, 0, 0, 0, 0, 0, 0, 0, 0, 0, 0, 0, 0, 0, 0, 0, 0, 0, 0, 0, 0, 0, 0, 0, 0, 0, 0, 0, 0, 0, 0, 0, 0, 0, 0, 0, 0, 0, 0, 0, 0, 0, 0, 0, 0, 0, 0, 0, 0, 0, 0, 0, 0, 0, 0, 0, 0, 0, 0, 0, 0, 0, 0, 0, 0, 0, 0, 0, 0, 0, 0, 0, 0, 0, 0, 0, 0, 0, 0, 0, 0, 0, 0, 0, 0, 0, 0, 0, 0, 0, 0, 0, 0, 0, 0, 0, 0, 0, 0, 0, 0, 0, 0, 0, 0, 0, 0, 0, 0, 0, 0, 0, 0, 0, 0, 0, 0, 0, 0, 0, 0, 0, 0, 0, 0, 0, 0, 0, 0, 0, 0, 0, 0, 0, 0, 0, 0, 0, 0, 0, 0, 0, 0, 0, 0, 0, 0, 0, 0, 0, 0, 0, 0, 0, 0, 0, 0, 0, 0, 0, 0, 0, 32, 0, 0, 0, 247, 70, 39, 58, 76, 125, 229, 57, 75, 247, 176, 57, 7, 180, 38, 58, 64, 233, 51, 58, 65, 48, 214, 57, 19, 119, 243, 57, 174, 199, 146, 57, 93, 115, 208, 57, 128, 67, 62, 58, 120, 42, 250, 57, 156, 32, 99, 58, 190, 43, 1, 59, 193, 81, 250, 57, 195, 59, 12, 58, 168, 142, 184, 57, 183, 74, 149, 58, 36, 80, 223, 58, 101, 58, 11, 58, 123, 229, 49, 58, 10, 40, 56, 58, 204, 201, 255, 57, 198, 211, 94, 58, 105, 115, 44, 58, 195, 10, 244, 57, 47, 121, 132, 58, 163, 72, 202, 57, 137, 226, 43, 58, 30, 218, 212, 57, 58, 21, 202, 57, 183, 198, 223, 57, 156, 13, 15, 58, 18, 0, 0, 0, 116, 102, 108, 46, 112, 115, 101, 117, 100, 111, 95, 113, 99, 111, 110, 115, 116, 54, 0, 0, 1, 0, 0, 0, 32, 0, 0, 0, 234, 235, 255, 255, 0, 0, 0, 1, 20, 0, 0, 0, 40, 3, 0, 0, 8, 0, 0, 0, 0, 0, 0, 9, 52, 3, 0, 0, 100, 235, 255, 255, 8, 0, 0, 0, 12, 2, 0, 0, 64, 0, 0, 0, 0, 0, 0, 0, 0, 0, 0, 0, 0, 0, 0, 0, 0, 0, 0, 0, 0, 0, 0, 0, 0, 0, 0, 0, 0, 0, 0, 0, 0, 0, 0, 0, 0, 0, 0, 0, 0, 0, 0, 0, 0, 0, 0, 0, 0, 0, 0, 0, 0, 0, 0, 0, 0, 0, 0, 0, 0, 0, 0, 0, 0, 0, 0, 0, 0, 0, 0, 0, 0, 0, 0, 0, 0, 0, 0, 0, 0, 0, 0, 0, 0, 0, 0, 0, 0, 0, 0, 0, 0, 0, 0, 0, 0, 0, 0, 0, 0, 0, 0, 0, 0, 0, 0, 0, 0, 0, 0, 0, 0, 0, 0, 0, 0, 0, 0, 0, 0, 0, 0, 0, 0, 0, 0, 0, 0, 0, 0, 0, 0, 0, 0, 0, 0, 0, 0, 0, 0, 0, 0, 0, 0, 0, 0, 0, 0, 0, 0, 0, 0, 0, 0, 0, 0, 0, 0, 0, 0, 0, 0, 0, 0, 0, 0, 0, 0, 0, 0, 0, 0, 0, 0, 0, 0, 0, 0, 0, 0, 0, 0, 0, 0, 0, 0, 0, 0, 0, 0, 0, 0, 0, 0, 0, 0, 0, 0, 0, 0, 0, 0, 0, 0, 0, 0, 0, 0, 0, 0, 0, 0, 0, 0, 0, 0, 0, 0, 0, 0, 0, 0, 0, 0, 0, 0, 0, 0, 0, 0, 0, 0, 0, 0, 0, 0, 0, 0, 0, 0, 0, 0, 0, 0, 0, 0, 0, 0, 0, 0, 0, 0, 0, 0, 0, 0, 0, 0, 0, 0, 0, 0, 0, 0, 0, 0, 0, 0, 0, 0, 0, 0, 0, 0, 0, 0, 0, 0, 0, 0, 0, 0, 0, 0, 0, 0, 0, 0, 0, 0, 0, 0, 0, 0, 0, 0, 0, 0, 0, 0, 0, 0, 0, 0, 0, 0, 0, 0, 0, 0, 0, 0, 0, 0, 0, 0, 0, 0, 0, 0, 0, 0, 0, 0, 0, 0, 0, 0, 0, 0, 0, 0, 0, 0, 0, 0, 0, 0, 0, 0, 0, 0, 0, 0, 0, 0, 0, 0, 0, 0, 0, 0, 0, 0, 0, 0, 0, 0, 0, 0, 0, 0, 0, 0, 0, 0, 0, 0, 0, 0, 0, 0, 0, 0, 0, 0, 0, 0, 0, 0, 0, 0, 0, 0, 0, 0, 0, 0, 0, 0, 0, 0, 0, 0, 0, 0, 0, 0, 0, 0, 0, 0, 0, 0, 0, 0, 0, 0, 0, 0, 0, 0, 0, 0, 0, 0, 0, 0, 0, 0, 0, 0, 0, 0, 0, 0, 0, 0, 0, 0, 0, 0, 0, 0, 0, 0, 0, 0, 0, 0, 0, 0, 0, 0, 0, 0, 0, 0, 0, 0, 0, 0, 0, 0, 0, 0, 0, 0, 0, 0, 0, 0, 0, 0, 0, 0, 0, 0, 0, 0, 0, 0, 0, 0, 0, 0, 0, 0, 0, 0, 0, 0, 0, 0, 0, 0, 0, 0, 0, 0, 0, 0, 0, 0, 0, 0, 0, 0, 0, 0, 0, 0, 0, 0, 0, 0, 0, 0, 0, 0, 0, 0, 0, 0, 0, 0, 0, 0, 0, 64, 0, 0, 0, 75, 235, 142, 59, 218, 119, 178, 59, 124, 130, 209, 59, 249, 13, 7, 60, 183, 248, 160, 59, 252, 104, 151, 59, 44, 74, 236, 59, 151, 238, 186, 59, 119, 77, 170, 59, 125, 67, 166, 59, 112, 26, 161, 59, 9, 99, 223, 59, 147, 183, 193, 59, 167, 108, 137, 59, 206, 214, 201, 59, 31, 166, 196, 59, 229, 226, 143, 59, 219, 111, 190, 59, 57, 104, 164, 59, 44, 248, 195, 59, 118, 166, 160, 59, 243, 173, 7, 60, 167, 154, 168, 59, 74, 143, 202, 59, 233, 184, 235, 59, 189, 63, 249, 59, 83, 82, 187, 59, 244, 51, 234, 59, 12, 110, 58, 60, 67, 125, 26, 60, 79, 100, 5, 60, 169, 180, 191, 59, 171, 232, 152, 59, 234, 194, 180, 59, 212, 216, 131, 59, 71, 32, 172, 59, 172, 97, 186, 59, 69, 75, 134, 59, 103, 206, 185, 59, 213, 171, 175, 59, 210, 144, 177, 59, 190, 93, 31, 60, 6, 21, 167, 59, 194, 27, 176, 59, 148, 110, 158, 59, 77, 221, 174, 59, 13, 187, 208, 59, 1, 224, 161, 59, 114, 177, 165, 59, 35, 245, 96, 59, 142, 52, 169, 59, 203, 24, 160, 59, 16, 204, 194, 59, 168, 226, 193, 59, 34, 10, 136, 59, 139, 122, 104, 59, 255, 185, 142, 59, 154, 199, 158, 59, 204, 247, 144, 59, 20, 42, 177, 59, 15, 116, 156, 59, 82, 104, 204, 59, 41, 255, 223, 59, 183, 220, 212, 59, 18, 0, 0, 0, 116, 102, 108, 46, 112, 115, 101, 117, 100, 111, 95, 113, 99, 111, 110, 115, 116, 53, 0, 0, 4, 0, 0, 0, 64, 0, 0, 0, 1, 0, 0, 0, 1, 0, 0, 0, 32, 0, 0, 0, 74, 239, 255, 255, 0, 0, 0, 1, 20, 0, 0, 0, 36, 3, 0, 0, 7, 0, 0, 0, 0, 0, 0, 2, 48, 3, 0, 0, 196, 238, 255, 255, 8, 0, 0, 0, 8, 2, 0, 0, 64, 0, 0, 0, 0, 0, 0, 0, 0, 0, 0, 0, 0, 0, 0, 0, 0, 0, 0, 0, 0, 0, 0, 0, 0, 0, 0, 0, 0, 0, 0, 0, 0, 0, 0, 0, 0, 0, 0, 0, 0, 0, 0, 0, 0, 0, 0, 0, 0, 0, 0, 0, 0, 0, 0, 0, 0, 0, 0, 0, 0, 0, 0, 0, 0, 0, 0, 0, 0, 0, 0, 0, 0, 0, 0, 0, 0, 0, 0, 0, 0, 0, 0, 0, 0, 0, 0, 0, 0, 0, 0, 0, 0, 0, 0, 0, 0, 0, 0, 0, 0, 0, 0, 0, 0, 0, 0, 0, 0, 0, 0, 0, 0, 0, 0, 0, 0, 0, 0, 0, 0, 0, 0, 0, 0, 0, 0, 0, 0, 0, 0, 0, 0, 0, 0, 0, 0, 0, 0, 0, 0, 0, 0, 0, 0, 0, 0, 0, 0, 0, 0, 0, 0, 0, 0, 0, 0, 0, 0, 0, 0, 0, 0, 0, 0, 0, 0, 0, 0, 0, 0, 0, 0, 0, 0, 0, 0, 0, 0, 0, 0, 0, 0, 0, 0, 0, 0, 0, 0, 0, 0, 0, 0, 0, 0, 0, 0, 0, 0, 0, 0, 0, 0, 0, 0, 0, 0, 0, 0, 0, 0, 0, 0, 0, 0, 0, 0, 0, 0, 0, 0, 0, 0, 0, 0, 0, 0, 0, 0, 0, 0, 0, 0, 0, 0, 0, 0, 0, 0, 0, 0, 0, 0, 0, 0, 0, 0, 0, 0, 0, 0, 0, 0, 0, 0, 0, 0, 0, 0, 0, 0, 0, 0, 0, 0, 0, 0, 0, 0, 0, 0, 0, 0, 0, 0, 0, 0, 0, 0, 0, 0, 0, 0, 0, 0, 0, 0, 0, 0, 0, 0, 0, 0, 0, 0, 0, 0, 0, 0, 0, 0, 0, 0, 0, 0, 0, 0, 0, 0, 0, 0, 0, 0, 0, 0, 0, 0, 0, 0, 0, 0, 0, 0, 0, 0, 0, 0, 0, 0, 0, 0, 0, 0, 0, 0, 0, 0, 0, 0, 0, 0, 0, 0, 0, 0, 0, 0, 0, 0, 0, 0, 0, 0, 0, 0, 0, 0, 0, 0, 0, 0, 0, 0, 0, 0, 0, 0, 0, 0, 0, 0, 0, 0, 0, 0, 0, 0, 0, 0, 0, 0, 0, 0, 0, 0, 0, 0, 0, 0, 0, 0, 0, 0, 0, 0, 0, 0, 0, 0, 0, 0, 0, 0, 0, 0, 0, 0, 0, 0, 0, 0, 0, 0, 0, 0, 0, 0, 0, 0, 0, 0, 0, 0, 0, 0, 0, 0, 0, 0, 0, 0, 0, 0, 0, 0, 0, 0, 0, 0, 0, 0, 0, 0, 0, 0, 0, 0, 0, 0, 0, 0, 0, 0, 0, 0, 0, 0, 0, 0, 0, 0, 0, 0, 0, 0, 0, 0, 0, 0, 0, 0, 0, 0, 0, 0, 0, 0, 0, 0, 0, 0, 0, 0, 0, 0, 0, 0, 0, 0, 0, 0, 0, 0, 0, 0, 0, 0, 0, 0, 0, 0, 0, 0, 0, 0, 0, 0, 0, 0, 0, 0, 0, 0, 0, 0, 0, 64, 0, 0, 0, 94, 98, 143, 57, 139, 12, 179, 57, 10, 49, 210, 57, 127, 126, 7, 58, 212, 126, 161, 57, 34, 231, 151, 57, 10, 15, 237, 57, 86, 138, 187, 57, 91, 219, 170, 57, 3, 206, 166, 57, 170, 160, 161, 57, 39, 29, 224, 57, 249, 88, 194, 57, 38, 223, 137, 57, 248, 126, 202, 57, 246, 73, 197, 57, 198, 90, 144, 57, 133, 14, 191, 57, 51, 241, 164, 57, 114, 155, 196, 57, 79, 44, 161, 57, 254, 30, 8, 58, 32, 39, 169, 57, 14, 56, 203, 57, 78, 125, 236, 57, 103, 15, 250, 57, 101, 238, 187, 57, 21, 247, 234, 57, 95, 9, 59, 58, 250, 253, 26, 58, 114, 211, 5, 58, 98, 84, 192, 57, 17, 104, 153, 57, 132, 89, 181, 57, 174, 70, 132, 57, 176, 175, 172, 57, 245, 252, 186, 57, 40, 187, 134, 57, 53, 105, 186, 57, 50, 62, 176, 57, 195, 36, 178, 57, 133, 226, 31, 58, 59, 160, 167, 57, 124, 174, 176, 57, 148, 242, 158, 57, 254, 110, 175, 57, 245, 104, 209, 57, 223, 102, 162, 57, 127, 59, 166, 57, 144, 176, 97, 57, 136, 193, 169, 57, 46, 158, 160, 57, 92, 110, 195, 57, 50, 132, 194, 57, 122, 123, 136, 57, 60, 60, 105, 57, 233, 48, 143, 57, 228, 75, 159, 57, 148, 112, 145, 57, 175, 189, 177, 57, 105, 246, 156, 57, 160, 18, 205, 57, 201, 185, 224, 57, 16, 142, 213, 57, 18, 0, 0, 0, 116, 102, 108, 46, 112, 115, 101, 117, 100, 111, 95, 113, 99, 111, 110, 115, 116, 52, 0, 0, 1, 0, 0, 0, 64, 0, 0, 0, 154, 242, 255, 255, 0, 0, 0, 1, 20, 0, 0, 0, 40, 6, 0, 0, 6, 0, 0, 0, 0, 0, 0, 9, 52, 6, 0, 0, 20, 242, 255, 255, 8, 0, 0, 0, 12, 4, 0, 0, 128, 0, 0, 0, 0, 0, 0, 0, 0, 0, 0, 0, 0, 0, 0, 0, 0, 0, 0, 0, 0, 0, 0, 0, 0, 0, 0, 0, 0, 0, 0, 0, 0, 0, 0, 0, 0, 0, 0, 0, 0, 0, 0, 0, 0, 0, 0, 0, 0, 0, 0, 0, 0, 0, 0, 0, 0, 0, 0, 0, 0, 0, 0, 0, 0, 0, 0, 0, 0, 0, 0, 0, 0, 0, 0, 0, 0, 0, 0, 0, 0, 0, 0, 0, 0, 0, 0, 0, 0, 0, 0, 0, 0, 0, 0, 0, 0, 0, 0, 0, 0, 0, 0, 0, 0, 0, 0, 0, 0, 0, 0, 0, 0, 0, 0, 0, 0, 0, 0, 0, 0, 0, 0, 0, 0, 0, 0, 0, 0, 0, 0, 0, 0, 0, 0, 0, 0, 0, 0, 0, 0, 0, 0, 0, 0, 0, 0, 0, 0, 0, 0, 0, 0, 0, 0, 0, 0, 0, 0, 0, 0, 0, 0, 0, 0, 0, 0, 0, 0, 0, 0, 0, 0, 0, 0, 0, 0, 0, 0, 0, 0, 0, 0, 0, 0, 0, 0, 0, 0, 0, 0, 0, 0, 0, 0, 0, 0, 0, 0, 0, 0, 0, 0, 0, 0, 0, 0, 0, 0, 0, 0, 0, 0, 0, 0, 0, 0, 0, 0, 0, 0, 0, 0, 0, 0, 0, 0, 0, 0, 0, 0, 0, 0, 0, 0, 0, 0, 0, 0, 0, 0, 0, 0, 0, 0, 0, 0, 0, 0, 0, 0, 0, 0, 0, 0, 0, 0, 0, 0, 0, 0, 0, 0, 0, 0, 0, 0, 0, 0, 0, 0, 0, 0, 0, 0, 0, 0, 0, 0, 0, 0, 0, 0, 0, 0, 0, 0, 0, 0, 0, 0, 0, 0, 0, 0, 0, 0, 0, 0, 0, 0, 0, 0, 0, 0, 0, 0, 0, 0, 0, 0, 0, 0, 0, 0, 0, 0, 0, 0, 0, 0, 0, 0, 0, 0, 0, 0, 0, 0, 0, 0, 0, 0, 0, 0, 0, 0, 0, 0, 0, 0, 0, 0, 0, 0, 0, 0, 0, 0, 0, 0, 0, 0, 0, 0, 0, 0, 0, 0, 0, 0, 0, 0, 0, 0, 0, 0, 0, 0, 0, 0, 0, 0, 0, 0, 0, 0, 0, 0, 0, 0, 0, 0, 0, 0, 0, 0, 0, 0, 0, 0, 0, 0, 0, 0, 0, 0, 0, 0, 0, 0, 0, 0, 0, 0, 0, 0, 0, 0, 0, 0, 0, 0, 0, 0, 0, 0, 0, 0, 0, 0, 0, 0, 0, 0, 0, 0, 0, 0, 0, 0, 0, 0, 0, 0, 0, 0, 0, 0, 0, 0, 0, 0, 0, 0, 0, 0, 0, 0, 0, 0, 0, 0, 0, 0, 0, 0, 0, 0, 0, 0, 0, 0, 0, 0, 0, 0, 0, 0, 0, 0, 0, 0, 0, 0, 0, 0, 0, 0, 0, 0, 0, 0, 0, 0, 0, 0, 0, 0, 0, 0, 0, 0, 0, 0, 0, 0, 0, 0, 0, 0, 0, 0, 0, 0, 0, 0, 0, 0, 0, 0, 0, 0, 0, 0, 0, 0, 0, 0, 0, 0, 0, 0, 0, 0, 0, 0, 0, 0, 0, 0, 0, 0, 0, 0, 0, 0, 0, 0, 0, 0, 0, 0, 0, 0, 0, 0, 0, 0, 0, 0, 0, 0, 0, 0, 0, 0, 0, 0, 0, 0, 0, 0, 0, 0, 0, 0, 0, 0, 0, 0, 0, 0, 0, 0, 0, 0, 0, 0, 0, 0, 0, 0, 0, 0, 0, 0, 0, 0, 0, 0, 0, 0, 0, 0, 0, 0, 0, 0, 0, 0, 0, 0, 0, 0, 0, 0, 0, 0, 0, 0, 0, 0, 0, 0, 0, 0, 0, 0, 0, 0, 0, 0, 0, 0, 0, 0, 0, 0, 0, 0, 0, 0, 0, 0, 0, 0, 0, 0, 0, 0, 0, 0, 0, 0, 0, 0, 0, 0, 0, 0, 0, 0, 0, 0, 0, 0, 0, 0, 0, 0, 0, 0, 0, 0, 0, 0, 0, 0, 0, 0, 0, 0, 0, 0, 0, 0, 0, 0, 0, 0, 0, 0, 0, 0, 0, 0, 0, 0, 0, 0, 0, 0, 0, 0, 0, 0, 0, 0, 0, 0, 0, 0, 0, 0, 0, 0, 0, 0, 0, 0, 0, 0, 0, 0, 0, 0, 0, 0, 0, 0, 0, 0, 0, 0, 0, 0, 0, 0, 0, 0, 0, 0, 0, 0, 0, 0, 0, 0, 0, 0, 0, 0, 0, 0, 0, 0, 0, 0, 0, 0, 0, 0, 0, 0, 0, 0, 0, 0, 0, 0, 0, 0, 0, 0, 0, 0, 0, 0, 0, 0, 0, 0, 0, 0, 0, 0, 0, 0, 0, 0, 0, 0, 0, 0, 0, 0, 0, 0, 0, 0, 0, 0, 0, 0, 0, 0, 0, 0, 0, 0, 0, 0, 0, 0, 0, 0, 0, 0, 0, 0, 0, 0, 0, 0, 0, 0, 0, 0, 0, 0, 0, 0, 0, 0, 0, 0, 0, 0, 0, 0, 0, 0, 0, 0, 0, 0, 0, 0, 0, 0, 0, 0, 0, 0, 0, 0, 0, 0, 0, 0, 0, 0, 0, 0, 0, 0, 0, 0, 0, 0, 0, 0, 0, 0, 0, 0, 0, 0, 0, 0, 0, 0, 0, 0, 0, 0, 0, 0, 0, 0, 0, 0, 0, 0, 0, 0, 0, 0, 0, 0, 0, 0, 0, 0, 0, 0, 0, 0, 0, 0, 0, 0, 0, 0, 0, 0, 0, 0, 0, 0, 0, 0, 0, 0, 0, 0, 0, 0, 0, 0, 0, 0, 0, 0, 0, 0, 0, 0, 0, 0, 0, 0, 0, 0, 0, 0, 0, 0, 0, 0, 0, 0, 0, 0, 0, 0, 0, 0, 0, 0, 0, 0, 0, 0, 0, 0, 0, 0, 0, 0, 0, 0, 0, 0, 0, 0, 0, 0, 0, 0, 0, 0, 0, 0, 0, 0, 0, 0, 0, 0, 0, 0, 0, 0, 0, 0, 0, 0, 0, 0, 0, 0, 0, 0, 0, 0, 0, 0, 0, 0, 0, 0, 0, 0, 0, 0, 0, 0, 0, 0, 0, 0, 0, 0, 0, 0, 0, 0, 0, 0, 0, 0, 0, 0, 0, 0, 0, 0, 0, 0, 0, 128, 0, 0, 0, 74, 70, 135, 49, 117, 15, 11, 59, 74, 70, 135, 49, 74, 70, 135, 49, 145, 7, 70, 59, 74, 70, 135, 49, 74, 70, 135, 49, 213, 4, 230, 58, 97, 22, 206, 58, 101, 36, 56, 59, 74, 70, 135, 49, 74, 70, 135, 49, 74, 70, 135, 49, 74, 70, 135, 49, 113, 183, 16, 59, 128, 65, 3, 59, 140, 249, 0, 59, 74, 70, 135, 49, 74, 70, 135, 49, 121, 215, 62, 59, 184, 221, 2, 59, 74, 70, 135, 49, 74, 70, 135, 49, 74, 70, 135, 49, 74, 70, 135, 49, 62, 88, 234, 58, 201, 7, 181, 58, 74, 70, 135, 49, 184, 194, 40, 59, 74, 70, 135, 49, 74, 70, 135, 49, 24, 220, 237, 58, 74, 70, 135, 49, 74, 70, 135, 49, 74, 70, 135, 49, 74, 70, 135, 49, 74, 70, 135, 49, 74, 70, 135, 49, 74, 70, 135, 49, 74, 70, 135, 49, 70, 58, 27, 59, 158, 192, 245, 58, 215, 5, 71, 59, 74, 70, 135, 49, 214, 79, 203, 58, 74, 70, 135, 49, 74, 70, 135, 49, 74, 70, 135, 49, 74, 70, 135, 49, 74, 70, 135, 49, 161, 64, 251, 58, 74, 70, 135, 49, 79, 126,