#include "dog_detect_model_data.h"


alignas(8) const unsigned char g_dog_detect_model_data[] = {
  0x20, 0x00, 0x00, 0x00, 0x54, 0x46, 0x4c, 0x33, 0x00, 0x00, 0x00, 0x00,
  0x14, 0x00, 0x20, 0x00, 0x1c, 0x00, 0x18, 0x00, 0x14, 0x00, 0x10, 0x00,
  0x0c, 0x00, 0x00, 0x00, 0x08, 0x00, 0x04, 0x00, 0x14, 0x00, 0x00, 0x00,
  0x1c, 0x00, 0x00, 0x00, 0x90, 0x00, 0x00, 0x00, 0x10, 0x01, 0x00, 0x00,
  0x44, 0x37, 0x00, 0x00, 0x54, 0x37, 0x00, 0x00, 0xe8, 0x71, 0x00, 0x00,
  0x03, 0x00, 0x00, 0x00, 0x01, 0x00, 0x00, 0x00, 0x04, 0x00, 0x00, 0x00,
  0x2a, 0xc8, 0xff, 0xff, 0x0c, 0x00, 0x00, 0x00, 0x1c, 0x00, 0x00, 0x00,
  0x3c, 0x00, 0x00, 0x00, 0x0f, 0x00, 0x00, 0x00, 0x73, 0x65, 0x72, 0x76,
  0x69, 0x6e, 0x67, 0x5f, 0x64, 0x65, 0x66, 0x61, 0x75, 0x6c, 0x74, 0x00,
  0x01, 0x00, 0x00, 0x00, 0x04, 0x00, 0x00, 0x00, 0x64, 0xff, 0xff, 0xff,
  0x23, 0x00, 0x00, 0x00, 0x04, 0x00, 0x00, 0x00, 0x08, 0x00, 0x00, 0x00,
  0x6f, 0x75, 0x74, 0x70, 0x75, 0x74, 0x5f, 0x30, 0x00, 0x00, 0x00, 0x00,
  0x01, 0x00, 0x00, 0x00, 0x04, 0x00, 0x00, 0x00, 0x46, 0xc9, 0xff, 0xff,
  0x04, 0x00, 0x00, 0x00, 0x10, 0x00, 0x00, 0x00, 0x6b, 0x65, 0x72, 0x61,
  0x73, 0x5f, 0x74, 0x65, 0x6e, 0x73, 0x6f, 0x72, 0x5f, 0x31, 0x31, 0x36,
  0x00, 0x00, 0x00, 0x00, 0x03, 0x00, 0x00, 0x00, 0x5c, 0x00, 0x00, 0x00,
  0x2c, 0x00, 0x00, 0x00, 0x04, 0x00, 0x00, 0x00, 0xb8, 0xff, 0xff, 0xff,
  0x27, 0x00, 0x00, 0x00, 0x04, 0x00, 0x00, 0x00, 0x13, 0x00, 0x00, 0x00,
  0x43, 0x4f, 0x4e, 0x56, 0x45, 0x52, 0x53, 0x49, 0x4f, 0x4e, 0x5f, 0x4d,
  0x45, 0x54, 0x41, 0x44, 0x41, 0x54, 0x41, 0x00, 0xdc, 0xff, 0xff, 0xff,
  0x26, 0x00, 0x00, 0x00, 0x04, 0x00, 0x00, 0x00, 0x13, 0x00, 0x00, 0x00,
  0x6d, 0x69, 0x6e, 0x5f, 0x72, 0x75, 0x6e, 0x74, 0x69, 0x6d, 0x65, 0x5f,
  0x76, 0x65, 0x72, 0x73, 0x69, 0x6f, 0x6e, 0x00, 0x08, 0x00, 0x0c, 0x00,
  0x08, 0x00, 0x04, 0x00, 0x08, 0x00, 0x00, 0x00, 0x25, 0x00, 0x00, 0x00,
  0x04, 0x00, 0x00, 0x00, 0x13, 0x00, 0x00, 0x00, 0x6d, 0x69, 0x6e, 0x5f,
  0x72, 0x75, 0x6e, 0x74, 0x69, 0x6d, 0x65, 0x5f, 0x76, 0x65, 0x72, 0x73,
  0x69, 0x6f, 0x6e, 0x00, 0x28, 0x00, 0x00, 0x00, 0x30, 0x36, 0x00, 0x00,
  0x28, 0x36, 0x00, 0x00, 0x10, 0x36, 0x00, 0x00, 0xf4, 0x35, 0x00, 0x00,
  0x64, 0x35, 0x00, 0x00, 0x54, 0x33, 0x00, 0x00, 0x44, 0x13, 0x00, 0x00,
  0x34, 0x12, 0x00, 0x00, 0x24, 0x0a, 0x00, 0x00, 0x94, 0x09, 0x00, 0x00,
  0x64, 0x08, 0x00, 0x00, 0xd4, 0x07, 0x00, 0x00, 0xa4, 0x06, 0x00, 0x00,
  0x14, 0x06, 0x00, 0x00, 0x04, 0x04, 0x00, 0x00, 0xb4, 0x03, 0x00, 0x00,
  0x14, 0x03, 0x00, 0x00, 0xc4, 0x02, 0x00, 0x00, 0x34, 0x02, 0x00, 0x00,
  0x04, 0x02, 0x00, 0x00, 0xac, 0x01, 0x00, 0x00, 0x7c, 0x01, 0x00, 0x00,
  0x24, 0x01, 0x00, 0x00, 0x1c, 0x01, 0x00, 0x00, 0x14, 0x01, 0x00, 0x00,
  0x0c, 0x01, 0x00, 0x00, 0x04, 0x01, 0x00, 0x00, 0xfc, 0x00, 0x00, 0x00,
  0xf4, 0x00, 0x00, 0x00, 0xec, 0x00, 0x00, 0x00, 0xe4, 0x00, 0x00, 0x00,
  0xdc, 0x00, 0x00, 0x00, 0xd4, 0x00, 0x00, 0x00, 0xcc, 0x00, 0x00, 0x00,
  0xc4, 0x00, 0x00, 0x00, 0xbc, 0x00, 0x00, 0x00, 0xb4, 0x00, 0x00, 0x00,
  0x94, 0x00, 0x00, 0x00, 0x74, 0x00, 0x00, 0x00, 0x04, 0x00, 0x00, 0x00,
  0x8e, 0xca, 0xff, 0xff, 0x04, 0x00, 0x00, 0x00, 0x60, 0x00, 0x00, 0x00,
  0x0c, 0x00, 0x00, 0x00, 0x08, 0x00, 0x0e, 0x00, 0x08, 0x00, 0x04, 0x00,
  0x08, 0x00, 0x00, 0x00, 0x10, 0x00, 0x00, 0x00, 0x28, 0x00, 0x00, 0x00,
  0x00, 0x00, 0x06, 0x00, 0x08, 0x00, 0x04, 0x00, 0x06, 0x00, 0x00, 0x00,
  0x04, 0x00, 0x00, 0x00, 0x01, 0x00, 0x00, 0x00, 0xeb, 0x03, 0x00, 0x00,
  0x0c, 0x00, 0x18, 0x00, 0x14, 0x00, 0x10, 0x00, 0x0c, 0x00, 0x04, 0x00,
  0x0c, 0x00, 0x00, 0x00, 0x60, 0x20, 0x15, 0x9f, 0xb3, 0xdb, 0xbc, 0x7c,
  0x02, 0x00, 0x00, 0x00, 0x02, 0x00, 0x00, 0x00, 0x04, 0x00, 0x00, 0x00,
  0x06, 0x00, 0x00, 0x00, 0x32, 0x2e, 0x31, 0x39, 0x2e, 0x30, 0x00, 0x00,
  0xfa, 0xca, 0xff, 0xff, 0x04, 0x00, 0x00, 0x00, 0x10, 0x00, 0x00, 0x00,
  0x00, 0x00, 0x00, 0x00, 0x00, 0x00, 0x00, 0x00, 0x00, 0x00, 0x00, 0x00,
  0x00, 0x00, 0x00, 0x00, 0x16, 0xcb, 0xff, 0xff, 0x04, 0x00, 0x00, 0x00,
  0x10, 0x00, 0x00, 0x00, 0x31, 0x2e, 0x31, 0x34, 0x2e, 0x30, 0x00, 0x00,
  0x00, 0x00, 0x00, 0x00, 0x00, 0x00, 0x00, 0x00, 0x40, 0x91, 0xff, 0xff,
  0x44, 0x91, 0xff, 0xff, 0x48, 0x91, 0xff, 0xff, 0x4c, 0x91, 0xff, 0xff,
  0x50, 0x91, 0xff, 0xff, 0x54, 0x91, 0xff, 0xff, 0x58, 0x91, 0xff, 0xff,
  0x5c, 0x91, 0xff, 0xff, 0x60, 0x91, 0xff, 0xff, 0x64, 0x91, 0xff, 0xff,
  0x68, 0x91, 0xff, 0xff, 0x6c, 0x91, 0xff, 0xff, 0x70, 0x91, 0xff, 0xff,
  0x74, 0x91, 0xff, 0xff, 0x6a, 0xcb, 0xff, 0xff, 0x04, 0x00, 0x00, 0x00,
  0x48, 0x00, 0x00, 0x00, 0xe8, 0xce, 0x0c, 0x7f, 0x5f, 0x6a, 0xbd, 0xb8,
  0x0d, 0x05, 0xa2, 0x50, 0x81, 0xdc, 0x03, 0xef, 0xdf, 0xe5, 0x24, 0x7f,
  0xe7, 0xb6, 0xbe, 0x05, 0xca, 0x2e, 0x13, 0x89, 0xe1, 0x4e, 0xd3, 0xfd,
  0xbf, 0x76, 0x7f, 0xc9, 0x74, 0x15, 0x15, 0x8f, 0x50, 0x7f, 0xd6, 0x8d,
  0xf8, 0x31, 0xd6, 0xcf, 0x24, 0xe8, 0xc9, 0x4d, 0xc5, 0x81, 0x7f, 0xed,
  0xf7, 0x1e, 0xe6, 0xca, 0xd2, 0xd4, 0xa8, 0x05, 0xd5, 0x16, 0x04, 0x33,
  0xee, 0xe4, 0x7f, 0xfc, 0xbe, 0xcb, 0xff, 0xff, 0x04, 0x00, 0x00, 0x00,
  0x20, 0x00, 0x00, 0x00, 0xa9, 0xac, 0xff, 0xff, 0xf1, 0x76, 0x00, 0x00,
  0x16, 0xfc, 0xff, 0xff, 0x4a, 0x08, 0x00, 0x00, 0x83, 0xd9, 0xff, 0xff,
  0x77, 0x73, 0x00, 0x00, 0xc7, 0x33, 0x00, 0x00, 0x85, 0xd2, 0xff, 0xff,
  0xea, 0xcb, 0xff, 0xff, 0x04, 0x00, 0x00, 0x00, 0x48, 0x00, 0x00, 0x00,
  0xe7, 0x26, 0xfa, 0x22, 0x0b, 0xee, 0xd6, 0xf0, 0xc7, 0x5e, 0x03, 0x3a,
  0x2e, 0x7f, 0x10, 0xcc, 0xb9, 0xef, 0x1a, 0x23, 0x1d, 0x4d, 0x2a, 0xdf,
  0x0b, 0x42, 0x19, 0xc2, 0xb7, 0x8e, 0xb4, 0x3f, 0xd2, 0x02, 0xb0, 0xbe,
  0x41, 0x01, 0x7f, 0x48, 0x9c, 0x30, 0x81, 0xbe, 0x42, 0xe3, 0x24, 0x81,
  0x81, 0x81, 0xfd, 0x81, 0x12, 0x79, 0xb8, 0x39, 0x7b, 0xf2, 0x4c, 0xc2,
  0x81, 0x1c, 0xf7, 0x28, 0x57, 0xb9, 0x3c, 0xd4, 0xf2, 0x87, 0x2e, 0xfc,
  0x3e, 0xcc, 0xff, 0xff, 0x04, 0x00, 0x00, 0x00, 0x20, 0x00, 0x00, 0x00,
  0x64, 0x03, 0x00, 0x00, 0x3d, 0xff, 0xff, 0xff, 0x35, 0x00, 0x00, 0x00,
  0xa9, 0x0b, 0x00, 0x00, 0x0e, 0xff, 0xff, 0xff, 0xbb, 0xfc, 0xff, 0xff,
  0xb2, 0xfe, 0xff, 0xff, 0xa1, 0xfe, 0xff, 0xff, 0x6a, 0xcc, 0xff, 0xff,
  0x04, 0x00, 0x00, 0x00, 0x80, 0x00, 0x00, 0x00, 0x05, 0xd6, 0xe7, 0x05,
  0x17, 0xc9, 0x7f, 0xde, 0x9b, 0x84, 0x9d, 0x7f, 0xc5, 0x2b, 0x00, 0xef,
  0x45, 0x81, 0x4d, 0xac, 0xdd, 0x51, 0x84, 0xde, 0xee, 0x38, 0xf2, 0xdc,
  0xc2, 0xcf, 0x34, 0x7f, 0xe5, 0xc3, 0x34, 0x36, 0x96, 0x81, 0x73, 0xd8,
  0xf5, 0x8e, 0x6f, 0xe3, 0x52, 0xf7, 0x02, 0x7f, 0xfb, 0xca, 0x0d, 0x7f,
  0xed, 0xfa, 0xf2, 0xde, 0xc6, 0x01, 0x2a, 0xf6, 0xe4, 0x08, 0x7f, 0xff,
  0xcb, 0x81, 0xef, 0x06, 0x19, 0x1c, 0x62, 0x69, 0xc3, 0x9a, 0xb8, 0xff,
  0x32, 0x2b, 0xc7, 0x7f, 0xc2, 0x97, 0xe5, 0xed, 0x09, 0x69, 0x5e, 0x81,
  0x72, 0x81, 0x61, 0x75, 0xcf, 0xf7, 0xf9, 0xe9, 0xc3, 0xbf, 0x7f, 0x16,
  0xea, 0xf9, 0xea, 0x08, 0x1f, 0x2a, 0xbb, 0xde, 0xfb, 0xa4, 0x7f, 0xe1,
  0xf4, 0x65, 0xa5, 0xef, 0x31, 0x7f, 0x22, 0xf3, 0xd4, 0x53, 0xef, 0x7f,
  0x29, 0xf4, 0x83, 0x24, 0xf6, 0xcc, 0xff, 0xff, 0x04, 0x00, 0x00, 0x00,
  0x40, 0x00, 0x00, 0x00, 0xc8, 0xfb, 0xff, 0xff, 0x55, 0x04, 0x00, 0x00,
  0x5a, 0x00, 0x00, 0x00, 0x16, 0x00, 0x00, 0x00, 0xd4, 0x02, 0x00, 0x00,
  0xb0, 0xff, 0xff, 0xff, 0x0a, 0xfd, 0xff, 0xff, 0x10, 0xfd, 0xff, 0xff,
  0xba, 0xfc, 0xff, 0xff, 0x0b, 0x07, 0x00, 0x00, 0x16, 0x03, 0x00, 0x00,
  0x76, 0xfe, 0xff, 0xff, 0x04, 0x01, 0x00, 0x00, 0xde, 0xfe, 0xff, 0xff,
  0x7b, 0xf6, 0xff, 0xff, 0xf9, 0x03, 0x00, 0x00, 0x42, 0xcd, 0xff, 0xff,
  0x04, 0x00, 0x00, 0x00, 0x90, 0x00, 0x00, 0x00, 0x89, 0xf3, 0x2a, 0x96,
  0x08, 0xa9, 0x27, 0x3c, 0xdf, 0x81, 0x11, 0x1e, 0x68, 0xc4, 0x32, 0x15,
  0xa6, 0xff, 0xa3, 0x03, 0x7f, 0x28, 0x07, 0x30, 0x46, 0x08, 0x03, 0x2a,
  0x54, 0x81, 0x5c, 0x08, 0x2c, 0x3d, 0x2d, 0xec, 0x60, 0xfe, 0x02, 0xe6,
  0x7f, 0xb7, 0x23, 0x81, 0xd9, 0x92, 0x4d, 0x71, 0xed, 0xff, 0x6d, 0x81,
  0xcd, 0x81, 0x7f, 0x7f, 0xa5, 0xf9, 0xc1, 0xe8, 0x36, 0x0a, 0xd6, 0xdd,
  0x38, 0x81, 0x15, 0xd0, 0xad, 0xe0, 0x53, 0x51, 0xfd, 0xed, 0x5e, 0xbb,
  0x57, 0x03, 0x7f, 0x38, 0xd0, 0xac, 0xd3, 0xe1, 0xbb, 0x1e, 0x1f, 0xac,
  0x7f, 0x14, 0xde, 0x7b, 0x03, 0x66, 0x66, 0x71, 0x7f, 0x0b, 0xfb, 0x89,
  0x0e, 0xc9, 0x64, 0x40, 0x34, 0x4b, 0xae, 0x08, 0xb4, 0x96, 0x06, 0xc2,
  0x64, 0x20, 0x7f, 0xe8, 0x17, 0xcd, 0x67, 0x0c, 0x5d, 0x20, 0x7f, 0xec,
  0x81, 0x48, 0x32, 0x7f, 0xba, 0x17, 0x5e, 0x11, 0xd5, 0xa7, 0x7f, 0xc0,
  0x67, 0x67, 0x95, 0xf8, 0xd2, 0x50, 0x08, 0x72, 0xde, 0xcd, 0xff, 0xff,
  0x04, 0x00, 0x00, 0x00, 0x40, 0x00, 0x00, 0x00, 0xc5, 0x00, 0x00, 0x00,
  0x3c, 0x02, 0x00, 0x00, 0x8e, 0xfe, 0xff, 0xff, 0x09, 0x11, 0x00, 0x00,
  0xa1, 0xff, 0xff, 0xff, 0x13, 0x06, 0x00, 0x00, 0xfd, 0xf5, 0xff, 0xff,
  0xa3, 0xfb, 0xff, 0xff, 0x38, 0xfc, 0xff, 0xff, 0x16, 0x00, 0x00, 0x00,
  0xb5, 0xfe, 0xff, 0xff, 0x01, 0x01, 0x00, 0x00, 0x5c, 0x01, 0x00, 0x00,
  0x96, 0x02, 0x00, 0x00, 0x0f, 0xf8, 0xff, 0xff, 0x10, 0xf7, 0xff, 0xff,
  0x2a, 0xce, 0xff, 0xff, 0x04, 0x00, 0x00, 0x00, 0x00, 0x02, 0x00, 0x00,
  0xd5, 0x19, 0xd7, 0x63, 0x7f, 0xfe, 0x37, 0x0d, 0xd9, 0xa1, 0xb3, 0xb6,
  0x37, 0xb5, 0x3a, 0x4f, 0xb4, 0xdd, 0xdd, 0x59, 0xdc, 0x5e, 0xef, 0x73,
  0x7f, 0x3e, 0x2e, 0xfb, 0xbf, 0x42, 0x37, 0x43, 0x18, 0xd4, 0x81, 0x15,
  0x1f, 0x47, 0x55, 0x28, 0x14, 0xd9, 0x08, 0xa5, 0xc6, 0x16, 0x00, 0x36,
  0xe1, 0x86, 0xc2, 0xfc, 0x07, 0xeb, 0x1d, 0xe7, 0x81, 0x32, 0x0e, 0x7a,
  0x13, 0x07, 0xd5, 0xfc, 0xf1, 0xc1, 0xda, 0xdf, 0xb8, 0xcc, 0x81, 0x2b,
  0x1b, 0xef, 0xd1, 0xdd, 0xda, 0xd3, 0xfc, 0x25, 0xce, 0xfd, 0xf6, 0xff,
  0xe0, 0xff, 0x7f, 0x73, 0x5a, 0xf9, 0x20, 0x0f, 0x54, 0x16, 0xab, 0xd7,
  0xc9, 0x40, 0xf5, 0x56, 0x74, 0xb2, 0xfc, 0x6a, 0x03, 0x13, 0xe6, 0xc5,
  0xc7, 0x09, 0x81, 0xdd, 0x7f, 0x01, 0x54, 0xd0, 0x1b, 0x12, 0x11, 0xd4,
  0xa9, 0x52, 0x4d, 0x25, 0x20, 0xbb, 0x35, 0x9e, 0xa9, 0x9d, 0xfd, 0xad,
  0x27, 0xc1, 0xff, 0xcc, 0x4c, 0x4b, 0x87, 0xe3, 0x2e, 0x1b, 0x53, 0x7f,
  0xd9, 0x81, 0x09, 0x27, 0xe8, 0x39, 0xc8, 0x12, 0xfa, 0xeb, 0x07, 0xfa,
  0xf6, 0x22, 0xe0, 0x29, 0xdd, 0xf6, 0x1d, 0x3c, 0x3b, 0x45, 0xf8, 0x17,
  0xf7, 0xf1, 0x46, 0xf5, 0x17, 0x1d, 0x38, 0x81, 0x0b, 0x23, 0x06, 0xa9,
  0xdd, 0x40, 0xe0, 0x75, 0x4a, 0x0a, 0x18, 0x01, 0xdf, 0x00, 0x81, 0xfc,
  0x04, 0x1a, 0x29, 0x81, 0x34, 0x19, 0xea, 0x4b, 0x2c, 0xd4, 0x1e, 0xff,
  0xe4, 0x14, 0xd5, 0xe3, 0x68, 0xff, 0xf6, 0xd5, 0x04, 0x59, 0x37, 0x1c,
  0x36, 0x19, 0xea, 0xfe, 0x30, 0xd7, 0x7f, 0xfb, 0x23, 0xf9, 0xe2, 0x2a,
  0xd7, 0xda, 0x21, 0xa8, 0x81, 0xf6, 0x68, 0xf0, 0x05, 0xe3, 0x35, 0xe4,
  0x60, 0x58, 0x4f, 0xc7, 0x3a, 0x2f, 0x27, 0x28, 0x03, 0x0d, 0x48, 0x31,
  0xfb, 0x96, 0xc9, 0x81, 0xc0, 0x81, 0xf4, 0x20, 0xcf, 0xf4, 0xe8, 0xe2,
  0xfb, 0x5b, 0x11, 0x10, 0xf6, 0xd0, 0xe3, 0x04, 0xf8, 0xc0, 0xef, 0xdb,
  0xb5, 0xf4, 0xc1, 0x1b, 0x48, 0xd9, 0xe9, 0xe7, 0x36, 0x7f, 0xea, 0xee,
  0x2e, 0x07, 0x17, 0x43, 0xfa, 0x5f, 0xae, 0x38, 0x08, 0x63, 0x4d, 0xd5,
  0xa7, 0x81, 0x43, 0x11, 0x04, 0xf7, 0xec, 0x7f, 0x4f, 0xf1, 0xc4, 0x3b,
  0xe5, 0xff, 0x03, 0xdd, 0x83, 0x1c, 0x98, 0x97, 0xa5, 0x04, 0x2c, 0x7f,
  0x1f, 0xed, 0x09, 0xfe, 0x32, 0xaf, 0x24, 0x29, 0x1c, 0x4d, 0x52, 0xb7,
  0x63, 0xfd, 0xe7, 0x1e, 0xfc, 0x32, 0xbe, 0xd6, 0xdc, 0x1f, 0x03, 0xc5,
  0xb7, 0x7f, 0xff, 0x16, 0x0a, 0x14, 0xc3, 0xac, 0xfd, 0x1c, 0x35, 0xf3,
  0xe4, 0x90, 0x81, 0x13, 0x2e, 0x63, 0xeb, 0x12, 0x71, 0x0c, 0xad, 0xea,
  0x05, 0xf5, 0x07, 0xd8, 0xc8, 0x04, 0x16, 0xfd, 0xea, 0x3f, 0x83, 0x7f,
  0x23, 0x05, 0xf5, 0x23, 0x98, 0x10, 0xfa, 0x26, 0x7f, 0xb5, 0x00, 0x01,
  0x09, 0xfa, 0x36, 0xfc, 0x5b, 0x5c, 0x9b, 0xab, 0xba, 0xda, 0x10, 0x7f,
  0xc4, 0x36, 0xc5, 0x16, 0x4a, 0x39, 0xa2, 0x6c, 0x0f, 0x17, 0x09, 0x99,
  0x30, 0x20, 0x02, 0x68, 0x37, 0x7f, 0xe0, 0xd5, 0xe6, 0xdc, 0xf2, 0xdd,
  0xfd, 0x1a, 0x1a, 0xb7, 0x71, 0x48, 0xcc, 0xef, 0x79, 0x24, 0x5a, 0xd0,
  0xd1, 0xed, 0x7f, 0x49, 0x83, 0x97, 0xac, 0x17, 0xce, 0xee, 0x90, 0xd0,
  0x9c, 0x0d, 0xb8, 0x7f, 0x22, 0xbf, 0x72, 0x6e, 0xb4, 0x2d, 0xc4, 0xf6,
  0xce, 0xd8, 0x1a, 0x37, 0xd4, 0xf6, 0x38, 0xb8, 0x51, 0xf1, 0x81, 0xfe,
  0xde, 0xf0, 0x7c, 0xde, 0xb3, 0x24, 0x30, 0x31, 0x7f, 0x59, 0x3d, 0xea,
  0xbc, 0xb4, 0xf2, 0xe5, 0x1b, 0xaf, 0xa5, 0x58, 0x9b, 0x1c, 0x19, 0x39,
  0x19, 0xd1, 0x4f, 0xe4, 0xf5, 0x50, 0x8c, 0x81, 0x36, 0xd0, 0xff, 0xff,
  0x04, 0x00, 0x00, 0x00, 0x80, 0x00, 0x00, 0x00, 0x43, 0xff, 0xff, 0xff,
  0x3f, 0xf6, 0xff, 0xff, 0x2f, 0x02, 0x00, 0x00, 0x85, 0x05, 0x00, 0x00,
  0x0a, 0x0a, 0x00, 0x00, 0xf9, 0xfb, 0xff, 0xff, 0x38, 0xfe, 0xff, 0xff,
  0x83, 0xfc, 0xff, 0xff, 0xad, 0x01, 0x00, 0x00, 0xfc, 0x01, 0x00, 0x00,
  0x75, 0xfe, 0xff, 0xff, 0x19, 0x00, 0x00, 0x00, 0x3a, 0x04, 0x00, 0x00,
  0xf7, 0xfa, 0xff, 0xff, 0xc6, 0x02, 0x00, 0x00, 0xa7, 0xff, 0xff, 0xff,
  0xf1, 0x07, 0x00, 0x00, 0x15, 0x00, 0x00, 0x00, 0x0f, 0x12, 0x00, 0x00,
  0x28, 0x0d, 0x00, 0x00, 0x63, 0xfc, 0xff, 0xff, 0x6c, 0xf7, 0xff, 0xff,
  0xb6, 0x02, 0x00, 0x00, 0xfe, 0xf8, 0xff, 0xff, 0x65, 0xfd, 0xff, 0xff,
  0xe2, 0xfa, 0xff, 0xff, 0xa6, 0xfe, 0xff, 0xff, 0x72, 0xf8, 0xff, 0xff,
  0x55, 0x01, 0x00, 0x00, 0x8e, 0x03, 0x00, 0x00, 0xa5, 0xfe, 0xff, 0xff,
  0x83, 0x05, 0x00, 0x00, 0xc2, 0xd0, 0xff, 0xff, 0x04, 0x00, 0x00, 0x00,
  0x20, 0x01, 0x00, 0x00, 0x19, 0xfa, 0x11, 0x7f, 0xde, 0x17, 0x7a, 0x37,
  0x38, 0xfc, 0xe2, 0xc2, 0x84, 0x79, 0x81, 0xc3, 0xf8, 0xfc, 0x7f, 0x75,
  0xfd, 0xfc, 0xf3, 0x10, 0x5a, 0xb3, 0x7f, 0x57, 0xf6, 0xe4, 0x7f, 0x81,
  0x7f, 0x15, 0x26, 0x47, 0x0b, 0x1a, 0x84, 0x70, 0x21, 0xc3, 0xe3, 0x26,
  0x81, 0xf9, 0xdc, 0x31, 0x90, 0xca, 0x20, 0x37, 0x17, 0xb6, 0x97, 0xd7,
  0xa1, 0x0f, 0x3d, 0x3f, 0x17, 0xb1, 0x48, 0x13, 0x99, 0x81, 0x1c, 0xf9,
  0x90, 0x1b, 0x22, 0xd5, 0x7f, 0x06, 0x81, 0x27, 0xed, 0x81, 0xd0, 0x30,
  0xf9, 0x99, 0x06, 0xec, 0xee, 0xaf, 0xd0, 0x60, 0xfe, 0xee, 0x9a, 0x36,
  0x4a, 0x0c, 0xb8, 0xff, 0x4c, 0xb5, 0xd6, 0xb2, 0x81, 0xde, 0xe3, 0x2f,
  0x49, 0x81, 0x20, 0xb8, 0xb7, 0x37, 0x29, 0xf1, 0xa8, 0xb5, 0xd8, 0xd2,
  0x00, 0x08, 0x36, 0x81, 0x9c, 0xdc, 0x4d, 0xfd, 0xdd, 0x05, 0xe6, 0xf4,
  0xf6, 0x00, 0x4f, 0xb0, 0x29, 0x27, 0x7f, 0x7f, 0xb1, 0xe0, 0xe4, 0xb6,
  0x23, 0x10, 0xd0, 0xd3, 0x81, 0xdd, 0xf3, 0x6e, 0xbb, 0x7f, 0xe8, 0x05,
  0xb2, 0xa6, 0x36, 0x21, 0x4c, 0x7f, 0x0b, 0x7a, 0x11, 0x27, 0x69, 0xe6,
  0x33, 0xaf, 0x3a, 0x21, 0xc4, 0x3d, 0x42, 0x81, 0x2b, 0xce, 0x01, 0x7f,
  0xad, 0x23, 0xef, 0xf4, 0xb2, 0x0b, 0xfa, 0x40, 0x26, 0x2d, 0x0f, 0x7f,
  0x40, 0xe2, 0xc5, 0x24, 0xb7, 0x30, 0xdd, 0x1d, 0xef, 0x1e, 0xc2, 0x2d,
  0xf4, 0x5b, 0x69, 0x3e, 0xbd, 0x32, 0x4e, 0xfa, 0xde, 0x4d, 0x30, 0x39,
  0x81, 0xc9, 0x81, 0x0e, 0x7f, 0x7f, 0x2a, 0xb8, 0xca, 0xf6, 0x4b, 0xe0,
  0xcd, 0x4b, 0xe4, 0x33, 0x0b, 0xc5, 0x03, 0x63, 0x42, 0x0c, 0xf5, 0x31,
  0x01, 0x1e, 0x76, 0x1c, 0x98, 0x81, 0x4e, 0xd3, 0x3a, 0x6b, 0xe5, 0x3b,
  0xe5, 0x12, 0xd9, 0xdc, 0xfc, 0xfd, 0x50, 0x21, 0x08, 0x5b, 0x7f, 0x10,
  0x1b, 0x7f, 0xdb, 0xfa, 0xc2, 0x4b, 0x17, 0x24, 0x3c, 0x30, 0x59, 0x48,
  0xd5, 0x09, 0xfa, 0x7f, 0x8e, 0xb6, 0xb5, 0x12, 0x57, 0x03, 0x42, 0x02,
  0x7f, 0x15, 0x04, 0x9f, 0xee, 0xd1, 0xff, 0xff, 0x04, 0x00, 0x00, 0x00,
  0x80, 0x00, 0x00, 0x00, 0x54, 0x00, 0x00, 0x00, 0x67, 0xff, 0xff, 0xff,
  0xc6, 0xf7, 0xff, 0xff, 0x4e, 0xfe, 0xff, 0xff, 0x60, 0x07, 0x00, 0x00,
  0xd9, 0xfe, 0xff, 0xff, 0x6a, 0xff, 0xff, 0xff, 0xdd, 0xf9, 0xff, 0xff,
  0xa6, 0xfd, 0xff, 0xff, 0x78, 0x00, 0x00, 0x00, 0xb8, 0x01, 0x00, 0x00,
  0x57, 0xff, 0xff, 0xff, 0x67, 0xff, 0xff, 0xff, 0x34, 0xfd, 0xff, 0xff,
  0x80, 0xfd, 0xff, 0xff, 0x68, 0xfb, 0xff, 0xff, 0x55, 0x0e, 0x00, 0x00,
  0xf2, 0x00, 0x00, 0x00, 0xd6, 0xfb, 0xff, 0xff, 0x60, 0xf4, 0xff, 0xff,
  0xb4, 0x09, 0x00, 0x00, 0xea, 0xff, 0xff, 0xff, 0xfe, 0x09, 0x00, 0x00,
  0x56, 0xfe, 0xff, 0xff, 0x9e, 0xfe, 0xff, 0xff, 0x0f, 0xfd, 0xff, 0xff,
  0x52, 0xfa, 0xff, 0xff, 0x66, 0xfc, 0xff, 0xff, 0xea, 0xfd, 0xff, 0xff,
  0x2c, 0xff, 0xff, 0xff, 0x56, 0xfb, 0xff, 0xff, 0x56, 0x01, 0x00, 0x00,
  0x7a, 0xd2, 0xff, 0xff, 0x04, 0x00, 0x00, 0x00, 0x20, 0x01, 0x00, 0x00,
  0x84, 0x27, 0x28, 0x81, 0xf7, 0xb6, 0x3d, 0x6c, 0xc4, 0x81, 0xcc, 0x4b,
  0xc0, 0x37, 0x7f, 0xcd, 0x55, 0xb7, 0x64, 0x64, 0xbd, 0x1f, 0x89, 0x47,
  0x59, 0xe8, 0xe0, 0x0a, 0xdd, 0x75, 0xbe, 0x81, 0x81, 0xcd, 0x0d, 0xde,
  0xe9, 0x7f, 0x7f, 0x1b, 0x81, 0x1d, 0x0f, 0x58, 0x81, 0x36, 0x03, 0xd4,
  0x5e, 0x94, 0x1b, 0x10, 0x49, 0x0c, 0xe9, 0x7f, 0xdc, 0xac, 0xb1, 0x1a,
  0x8f, 0xcc, 0xd4, 0x1e, 0xdb, 0xa2, 0x2b, 0xcb, 0x20, 0xad, 0x2e, 0xda,
  0xdd, 0xcf, 0x90, 0x33, 0xb3, 0x34, 0x65, 0xd3, 0x10, 0xd9, 0x27, 0x08,
  0x4c, 0xf4, 0x07, 0x56, 0xe1, 0x81, 0x81, 0x42, 0x85, 0x59, 0xdb, 0x8e,
  0xdc, 0x63, 0x0b, 0xe5, 0xb0, 0x36, 0x59, 0x36, 0xcd, 0x19, 0xbc, 0x42,
  0x65, 0x44, 0x36, 0xdc, 0xbe, 0x0e, 0x7f, 0x1e, 0x18, 0xce, 0x70, 0x26,
  0x81, 0x39, 0xdf, 0x2c, 0xe2, 0x81, 0x81, 0xec, 0xf0, 0x9e, 0x3b, 0xa0,
  0x9c, 0x90, 0xbf, 0x51, 0xcc, 0x1c, 0x6d, 0x7f, 0x51, 0x39, 0x0a, 0xe7,
  0x12, 0x4d, 0x29, 0xf6, 0x19, 0xb8, 0x1a, 0x43, 0x8b, 0x02, 0xf5, 0x0b,
  0xfd, 0x53, 0xbf, 0x0d, 0x07, 0x87, 0x29, 0xc5, 0x81, 0x5b, 0x07, 0xe3,
  0xb9, 0x07, 0x91, 0x7b, 0xda, 0x88, 0x54, 0xf3, 0x81, 0x1e, 0x51, 0xc3,
  0x0c, 0xce, 0x07, 0x4a, 0x11, 0x03, 0xf1, 0x42, 0xfb, 0x32, 0xbf, 0xca,
  0x02, 0x81, 0x15, 0xe7, 0x95, 0xad, 0xd8, 0x4a, 0x0e, 0x3f, 0xd0, 0x77,
  0x60, 0xa3, 0x1e, 0xe1, 0x1c, 0x44, 0x52, 0x7f, 0x1f, 0x7f, 0x81, 0xfa,
  0x8c, 0x34, 0x06, 0xf3, 0x65, 0x09, 0x1d, 0x56, 0x15, 0xb3, 0x7f, 0xfc,
  0xba, 0xdd, 0x18, 0x7f, 0x2a, 0xe1, 0xf6, 0x63, 0x3d, 0xea, 0x1c, 0xaa,
  0x3b, 0x7f, 0x16, 0x25, 0x7f, 0x16, 0x62, 0x1e, 0xc0, 0x09, 0xc9, 0xd2,
  0x7f, 0x7d, 0x01, 0x4d, 0x13, 0x96, 0x5c, 0xfa, 0xbe, 0xab, 0x1c, 0xf7,
  0xef, 0x43, 0x81, 0x4a, 0x0d, 0x81, 0x41, 0x81, 0xc9, 0x3b, 0x20, 0xce,
  0x62, 0x48, 0x27, 0x1a, 0x96, 0x87, 0xea, 0x81, 0x36, 0x0c, 0xf0, 0x0c,
  0xa6, 0xd3, 0xff, 0xff, 0x04, 0x00, 0x00, 0x00, 0x80, 0x00, 0x00, 0x00,
  0xf7, 0x06, 0x00, 0x00, 0x26, 0x09, 0x00, 0x00, 0x1a, 0xf6, 0xff, 0xff,
  0x9c, 0x09, 0x00, 0x00, 0x27, 0x0d, 0x00, 0x00, 0x9c, 0x00, 0x00, 0x00,
  0x2f, 0xfe, 0xff, 0xff, 0x9a, 0xf6, 0xff, 0xff, 0x24, 0x0b, 0x00, 0x00,
  0x35, 0x00, 0x00, 0x00, 0xad, 0x05, 0x00, 0x00, 0x7d, 0xfd, 0xff, 0xff,
  0x20, 0x00, 0x00, 0x00, 0x14, 0xff, 0xff, 0xff, 0x69, 0xf6, 0xff, 0xff,
  0xe2, 0x0e, 0x00, 0x00, 0x04, 0xff, 0xff, 0xff, 0x00, 0x00, 0x00, 0x00,
  0x4b, 0xef, 0xff, 0xff, 0x40, 0xfa, 0xff, 0xff, 0x7e, 0xfa, 0xff, 0xff,
  0xf3, 0xfe, 0xff, 0xff, 0x8f, 0xfe, 0xff, 0xff, 0xab, 0xfb, 0xff, 0xff,
  0x27, 0x07, 0x00, 0x00, 0x23, 0x02, 0x00, 0x00, 0xdc, 0x08, 0x00, 0x00,
  0x49, 0xfe, 0xff, 0xff, 0x75, 0xff, 0xff, 0xff, 0x3b, 0xfa, 0xff, 0xff,
  0x4d, 0x09, 0x00, 0x00, 0x18, 0x02, 0x00, 0x00, 0x32, 0xd4, 0xff, 0xff,
  0x04, 0x00, 0x00, 0x00, 0x00, 0x08, 0x00, 0x00, 0xd4, 0x9d, 0x87, 0xae,
  0xed, 0x09, 0xfc, 0xf0, 0x87, 0x08, 0x09, 0x46, 0x13, 0xcb, 0xd4, 0x29,
  0xe1, 0x6a, 0x7f, 0x00, 0x30, 0x7f, 0x21, 0x43, 0x8f, 0xfc, 0x2a, 0x1f,
  0xd7, 0xf6, 0x2e, 0x57, 0xb6, 0x06, 0x05, 0xfe, 0xaa, 0x13, 0xb1, 0x65,
  0x21, 0xfd, 0x4e, 0xe9, 0x0e, 0x2c, 0x1d, 0xb3, 0x7f, 0xfa, 0xde, 0xdb,
  0xf0, 0xf3, 0xa1, 0xfb, 0xc9, 0xc7, 0x0e, 0x22, 0xd8, 0x1a, 0xfb, 0x0e,
  0x72, 0x0a, 0xdc, 0x4b, 0x7f, 0x29, 0xce, 0x18, 0xf5, 0xc1, 0x30, 0xf4,
  0xed, 0x02, 0xad, 0xe4, 0x99, 0x02, 0x08, 0xed, 0x37, 0xea, 0xc6, 0x06,
  0x0a, 0xf0, 0xde, 0xde, 0x37, 0xe3, 0xe9, 0xe4, 0x42, 0x1b, 0x05, 0x23,
  0x24, 0x01, 0xf6, 0x21, 0xf4, 0xe3, 0x21, 0xfb, 0xb9, 0x12, 0xc3, 0x81,
  0xde, 0x11, 0xcd, 0xca, 0x1d, 0x03, 0xc7, 0x1c, 0x0a, 0x0d, 0xcc, 0xe7,
  0x41, 0xd2, 0xe1, 0xe1, 0x3b, 0x81, 0x7d, 0x77, 0x60, 0xeb, 0x91, 0xf7,
  0xe1, 0xdd, 0xf3, 0xf4, 0x1d, 0x4a, 0xa5, 0x0f, 0x9b, 0xeb, 0x0d, 0x99,
  0xbc, 0xd9, 0xd6, 0x0e, 0xed, 0x2c, 0xdd, 0x47, 0x4e, 0xd7, 0xb4, 0xa8,
  0x61, 0x7a, 0xdb, 0x44, 0x7f, 0x29, 0xcf, 0x25, 0x0e, 0xd8, 0x21, 0x25,
  0xe1, 0xb2, 0x89, 0x32, 0xaf, 0xc0, 0x53, 0xfa, 0x7a, 0xfe, 0xba, 0xc6,
  0x35, 0x0a, 0xe1, 0xb5, 0x14, 0xe1, 0x06, 0x2b, 0x4d, 0xfa, 0xf5, 0x32,
  0x4f, 0x07, 0xf8, 0x17, 0x12, 0xc3, 0x0d, 0xf3, 0xb7, 0x50, 0xd1, 0xa2,
  0xd2, 0x00, 0xbc, 0xc7, 0x07, 0x09, 0xb5, 0x3e, 0x23, 0x1a, 0xbd, 0x1d,
  0x51, 0xc7, 0x81, 0xec, 0x0c, 0xdf, 0x36, 0x05, 0xed, 0x7f, 0x20, 0xd1,
  0xce, 0x49, 0x02, 0xfd, 0x64, 0xb0, 0xdf, 0x04, 0xc6, 0x24, 0x0a, 0xe7,
  0xd1, 0x0f, 0xfb, 0x21, 0xc9, 0xd9, 0x3b, 0x83, 0xde, 0x26, 0x21, 0xe2,
  0x39, 0xd1, 0xa8, 0xca, 0xfd, 0xda, 0xcd, 0xe0, 0xf5, 0x02, 0xd9, 0x3c,
  0xc6, 0xcf, 0xdb, 0x31, 0xec, 0x0d, 0x57, 0x7f, 0x3e, 0x19, 0x0d, 0x2c,
  0x0e, 0x0b, 0xf2, 0xcb, 0xe4, 0x02, 0x47, 0x2b, 0x1a, 0x18, 0x1e, 0x7f,
  0x4a, 0xff, 0xfb, 0x06, 0x0f, 0xce, 0x35, 0x47, 0xe9, 0xa3, 0x04, 0xcb,
  0xe0, 0x3a, 0x50, 0x81, 0x15, 0x14, 0xab, 0xa6, 0xf4, 0x3b, 0xc5, 0xc9,
  0x68, 0xdd, 0xcd, 0xe9, 0x36, 0xbf, 0x26, 0xfd, 0xe5, 0x34, 0x2b, 0xfe,
  0xbb, 0x4d, 0xf6, 0x1c, 0x6e, 0x94, 0xd5, 0x16, 0xeb, 0x1b, 0x26, 0x30,
  0xf9, 0x05, 0x36, 0x49, 0xc3, 0xe1, 0x23, 0x81, 0xcb, 0x0d, 0x2c, 0x11,
  0xf5, 0xd3, 0x7f, 0xe9, 0xf6, 0xf9, 0xda, 0x17, 0xfe, 0x2c, 0xf3, 0x17,
  0xca, 0x3b, 0xda, 0x1f, 0xd9, 0xe4, 0xe7, 0xe0, 0xed, 0xef, 0x21, 0xf8,
  0x2f, 0xeb, 0xff, 0x49, 0xc6, 0xf5, 0x19, 0xf2, 0x11, 0x0d, 0x41, 0xc5,
  0x17, 0xef, 0xe3, 0x27, 0xcb, 0xe1, 0xde, 0xe3, 0xaf, 0x7f, 0xce, 0x98,
  0xf4, 0x11, 0xac, 0xc0, 0xed, 0xf1, 0xee, 0x50, 0x3c, 0x2b, 0xa7, 0x25,
  0x27, 0xfb, 0xe6, 0xd9, 0x56, 0x35, 0xdd, 0x55, 0x6f, 0x3a, 0xc7, 0xf8,
  0x3a, 0xb2, 0x16, 0xf0, 0xfd, 0xc1, 0x88, 0x07, 0xad, 0xd1, 0x58, 0xfc,
  0x7f, 0xd7, 0xb3, 0xf0, 0x27, 0xe9, 0x03, 0xc1, 0x2b, 0xe3, 0xc8, 0x13,
  0x1f, 0x9a, 0x09, 0xe9, 0x09, 0x47, 0x35, 0xfa, 0x81, 0x4e, 0x18, 0x12,
  0x39, 0xb0, 0xd0, 0x08, 0xd5, 0x28, 0x46, 0x02, 0xeb, 0xf8, 0x3c, 0x24,
  0xda, 0xf4, 0x0b, 0x88, 0xe3, 0x05, 0x12, 0x22, 0xf2, 0x0d, 0x2c, 0x0b,
  0xcb, 0x7f, 0x14, 0x27, 0x13, 0x44, 0x1f, 0xb8, 0x4a, 0xb3, 0xed, 0x14,
  0xf1, 0xe7, 0xb6, 0xd0, 0xa4, 0x1a, 0x16, 0xc6, 0xbd, 0x99, 0x40, 0xd5,
  0x3b, 0x46, 0xdd, 0xd7, 0xec, 0xec, 0xc3, 0x21, 0x9a, 0x12, 0xdd, 0x65,
  0x37, 0xfa, 0x22, 0x0e, 0xf1, 0x3e, 0x7f, 0xa6, 0x3e, 0x08, 0xf3, 0xc5,
  0xf2, 0x25, 0xb7, 0x03, 0xef, 0xea, 0x0a, 0x29, 0xb6, 0x22, 0x10, 0x0b,
  0x15, 0xde, 0x19, 0x31, 0xde, 0x5d, 0x15, 0xfe, 0xca, 0x1f, 0xeb, 0x19,
  0x2d, 0xaa, 0xd8, 0x1a, 0xef, 0x08, 0xfb, 0x19, 0xe9, 0x2c, 0xfa, 0x35,
  0xf7, 0xe4, 0x22, 0x81, 0xd9, 0x41, 0x3c, 0x01, 0xd5, 0x81, 0xb6, 0xd9,
  0xd7, 0x44, 0x2c, 0xfc, 0xb5, 0x63, 0x11, 0x4c, 0x20, 0xdb, 0xc0, 0x00,
  0xf5, 0x0f, 0x54, 0x48, 0xe9, 0xf9, 0x59, 0x3e, 0xa9, 0xc9, 0x16, 0x9e,
  0xe8, 0x1d, 0xec, 0x1c, 0x3b, 0xf5, 0x4f, 0x03, 0x39, 0xfe, 0xe9, 0x5b,
  0xce, 0xc7, 0xf0, 0x2c, 0x9d, 0x39, 0xca, 0x81, 0xcc, 0x20, 0x9c, 0xaf,
  0xdb, 0x12, 0xe3, 0x02, 0x50, 0x37, 0xbc, 0x4f, 0x48, 0xd7, 0xe0, 0xc0,
  0x37, 0xd5, 0x53, 0x2c, 0x17, 0x0b, 0xc0, 0x7f, 0xdf, 0xff, 0xf0, 0x2e,
  0x92, 0x66, 0xd7, 0xf9, 0xb5, 0x24, 0xa4, 0xa4, 0xac, 0x27, 0xf5, 0x0b,
  0x3e, 0x34, 0xcc, 0x5b, 0x11, 0xcc, 0x03, 0xbb, 0x01, 0x81, 0xc7, 0xb9,
  0xdb, 0x09, 0x16, 0xd3, 0xa4, 0x16, 0x13, 0x2c, 0xe7, 0xde, 0xee, 0xf6,
  0xec, 0x17, 0x57, 0x12, 0x17, 0x18, 0x1f, 0x33, 0xc3, 0xf6, 0x10, 0xd5,
  0xe0, 0x08, 0x0d, 0x1e, 0x30, 0xde, 0x49, 0x43, 0x2f, 0x06, 0xca, 0x5a,
  0x35, 0xd7, 0xce, 0x7f, 0x82, 0x66, 0xdd, 0xe5, 0xce, 0xfe, 0xdc, 0x89,
  0xa1, 0x3a, 0xc2, 0xd1, 0x4a, 0x26, 0xe9, 0x33, 0x3d, 0xc8, 0xb1, 0xbe,
  0xdc, 0xc7, 0xca, 0xc0, 0xf5, 0xec, 0x07, 0xb5, 0xd0, 0x18, 0x0c, 0x25,
  0xf3, 0xdf, 0xfd, 0x0c, 0x08, 0x57, 0x5d, 0xfc, 0x36, 0x0b, 0x08, 0x65,
  0x81, 0xde, 0x45, 0x22, 0xda, 0xcf, 0x32, 0x28, 0x01, 0xb7, 0xba, 0xc6,
  0xf8, 0xeb, 0x01, 0xe8, 0xa4, 0x10, 0x0e, 0x2e, 0x03, 0xdf, 0xea, 0x08,
  0xf4, 0x2f, 0x7f, 0xed, 0x20, 0x27, 0x21, 0x2e, 0xc5, 0xfb, 0x0a, 0x10,
  0xd9, 0xee, 0x32, 0x21, 0xf7, 0x81, 0xc0, 0xeb, 0xf3, 0x34, 0x22, 0xf2,
  0xa7, 0x25, 0x0d, 0x24, 0x08, 0xd7, 0xd4, 0xf7, 0xf2, 0x1f, 0x4a, 0x0d,
  0xe7, 0x2b, 0x28, 0x2c, 0xea, 0xe5, 0x18, 0xb3, 0xe4, 0x4d, 0xe5, 0x14,
  0xfa, 0xb9, 0xba, 0xd0, 0xf5, 0xf1, 0x00, 0xbb, 0xa3, 0x1a, 0x1b, 0x34,
  0xf0, 0xdf, 0x10, 0x0e, 0x07, 0x5f, 0x7f, 0xf8, 0x36, 0x36, 0x0d, 0x5d,
  0x89, 0xdc, 0x4a, 0x25, 0xda, 0xe5, 0x2f, 0x24, 0xdd, 0xff, 0x1a, 0xd8,
  0xec, 0x2e, 0x02, 0xae, 0xc8, 0x38, 0x14, 0xd9, 0x2a, 0x06, 0xbc, 0x81,
  0xf9, 0xf0, 0xfa, 0xc5, 0xd4, 0xd6, 0xf9, 0xd4, 0x1b, 0xca, 0x40, 0xe9,
  0x41, 0xea, 0x0e, 0xc2, 0xef, 0x4a, 0x3c, 0xb9, 0xe7, 0xfa, 0x04, 0xf8,
  0xf4, 0x0e, 0xf1, 0xe3, 0xe7, 0x06, 0xda, 0x81, 0x0a, 0x05, 0x00, 0xf5,
  0x10, 0xe1, 0xfd, 0x09, 0x37, 0xf6, 0x0c, 0xe7, 0x1d, 0x01, 0xc8, 0x07,
  0x2a, 0x25, 0x07, 0x1c, 0x16, 0xf3, 0xfe, 0x18, 0x38, 0xd8, 0x14, 0x22,
  0xc3, 0xec, 0xd6, 0x81, 0xeb, 0x11, 0xd7, 0xce, 0x04, 0x12, 0xd4, 0xe7,
  0xfb, 0x26, 0xe5, 0xed, 0x3a, 0xcc, 0xb2, 0xeb, 0x02, 0x81, 0xca, 0xd7,
  0xd2, 0x1a, 0xfe, 0x11, 0xb0, 0x1e, 0x2d, 0x24, 0x01, 0xd5, 0xe4, 0xe8,
  0x03, 0x16, 0x4d, 0x2c, 0x0c, 0x0f, 0x28, 0x35, 0xc7, 0xf7, 0x19, 0xee,
  0xe3, 0x1d, 0x21, 0x2c, 0x2b, 0x01, 0x11, 0x18, 0x53, 0x11, 0xe7, 0x74,
  0x19, 0xf0, 0x16, 0x7f, 0x90, 0x61, 0xd9, 0x11, 0xc8, 0x22, 0xc5, 0x2b,
  0xfe, 0x55, 0xdd, 0xc8, 0x4b, 0x26, 0x01, 0x35, 0xf2, 0xc4, 0xe1, 0xf3,
  0x7b, 0xaa, 0xd5, 0x6b, 0x6a, 0x23, 0xc2, 0xba, 0x9f, 0xe5, 0xe1, 0xb5,
  0x22, 0x38, 0xfe, 0xcc, 0xa4, 0xcf, 0xf1, 0x81, 0x99, 0xb9, 0xdd, 0x1f,
  0xca, 0x11, 0xcc, 0x3d, 0x23, 0xda, 0x33, 0xf1, 0x1d, 0x46, 0xdf, 0x23,
  0x75, 0x16, 0xe2, 0x16, 0x34, 0xd5, 0x0a, 0x04, 0xe7, 0xd0, 0x98, 0x30,
  0xba, 0xbb, 0x2c, 0xf7, 0x7f, 0x09, 0xf4, 0xe2, 0x0f, 0x03, 0xef, 0xc8,
  0xff, 0xea, 0x1c, 0x29, 0xf0, 0xf4, 0x39, 0x07, 0xdc, 0x65, 0x16, 0x47,
  0x0b, 0x4d, 0x3c, 0xa1, 0x7f, 0x8e, 0xe6, 0xee, 0xf1, 0xcb, 0xa8, 0xb7,
  0x85, 0x14, 0x09, 0xc2, 0xfb, 0x90, 0x7a, 0xb5, 0x2a, 0x43, 0xc9, 0xbe,
  0x0b, 0x0d, 0x09, 0xbc, 0xf2, 0x0a, 0xfb, 0x53, 0xd6, 0xea, 0xf1, 0xd6,
  0x9f, 0x77, 0x14, 0xa4, 0x1c, 0x05, 0x8d, 0xef, 0xe9, 0xfb, 0x05, 0x7f,
  0x48, 0x01, 0xa0, 0x39, 0x18, 0x10, 0xc3, 0xd0, 0x03, 0xd8, 0x67, 0xd6,
  0xef, 0xd7, 0xb1, 0x0e, 0xbf, 0x08, 0x02, 0xac, 0xba, 0x7f, 0xab, 0x95,
  0xbc, 0xed, 0xd2, 0xb0, 0xd9, 0xc1, 0xec, 0x4d, 0x32, 0x20, 0xcd, 0x28,
  0x47, 0xdf, 0x12, 0xd4, 0xdc, 0xd1, 0xef, 0x16, 0xbb, 0x13, 0x00, 0x29,
  0x37, 0xe8, 0xed, 0x4f, 0xd3, 0x5d, 0x7f, 0xb4, 0x0f, 0x10, 0xc9, 0xfb,
  0xac, 0x3b, 0xe6, 0xdd, 0x1e, 0x49, 0xf1, 0x3c, 0xde, 0xec, 0x09, 0x0c,
  0x21, 0x94, 0x25, 0x03, 0xd5, 0x16, 0x21, 0xf5, 0xa9, 0x3f, 0x08, 0x32,
  0x30, 0x9a, 0xe2, 0x2e, 0xf7, 0xf9, 0x21, 0x23, 0xf6, 0x19, 0x11, 0x5c,
  0xa8, 0xc1, 0x63, 0x81, 0xcb, 0x2a, 0x25, 0x0b, 0xa7, 0x09, 0x00, 0xcf,
  0xeb, 0xd4, 0xd0, 0xa1, 0xcd, 0x01, 0x31, 0x43, 0xd7, 0x00, 0x0c, 0x18,
  0x5a, 0x30, 0x5b, 0x14, 0x4d, 0x4d, 0xe4, 0x7d, 0x8f, 0xcf, 0x7f, 0x37,
  0xff, 0xa2, 0x73, 0x22, 0x00, 0x00, 0x21, 0x04, 0xdb, 0x02, 0xb5, 0x5d,
  0x28, 0xfe, 0x4c, 0x24, 0x09, 0x16, 0x42, 0x04, 0x68, 0x12, 0x0e, 0x16,
  0x2e, 0x25, 0xd1, 0x53, 0xc7, 0xf1, 0x61, 0x39, 0x08, 0x08, 0x7f, 0x42,
  0xf7, 0x40, 0x07, 0xba, 0xf7, 0xf7, 0xff, 0xe4, 0xfd, 0x0d, 0xf8, 0xdd,
  0xf3, 0x1e, 0xec, 0x81, 0xfd, 0x09, 0xf6, 0x10, 0x1c, 0xc8, 0x0c, 0x11,
  0x39, 0xf6, 0x08, 0xe7, 0x0c, 0x11, 0xd2, 0x15, 0xbf, 0xed, 0xf5, 0xcf,
  0xe3, 0x39, 0xd4, 0x16, 0xb2, 0xf0, 0x45, 0x26, 0x40, 0xd3, 0xeb, 0x52,
  0x2b, 0x4a, 0x36, 0x17, 0x43, 0x09, 0x20, 0x7f, 0x9d, 0xf8, 0x54, 0x29,
  0xe0, 0xfa, 0x63, 0x66, 0x32, 0xc5, 0x7f, 0x45, 0x5f, 0xf1, 0xb7, 0x08,
  0xcb, 0xf9, 0xf2, 0xeb, 0xbd, 0xd8, 0xc6, 0xd5, 0xf1, 0xe2, 0xf9, 0x86,
  0xd7, 0xff, 0xd0, 0x13, 0xcb, 0x1d, 0xfa, 0xfc, 0x28, 0xd0, 0xf7, 0xe2,
  0xd9, 0xd1, 0xc9, 0xa7, 0xfe, 0xe1, 0x06, 0xbd, 0x92, 0x09, 0x27, 0x43,
  0xf8, 0xbc, 0xdb, 0x17, 0x06, 0x78, 0x7f, 0xfc, 0x27, 0x0d, 0x12, 0x74,
  0x99, 0xed, 0x40, 0x26, 0xd9, 0xc0, 0x3f, 0x38, 0x77, 0x04, 0x14, 0x52,
  0x65, 0x02, 0xd1, 0x1a, 0x00, 0xcb, 0x0f, 0x17, 0xa6, 0x1e, 0xcb, 0x9f,
  0xb3, 0x18, 0x81, 0x9a, 0xc6, 0x1c, 0xd4, 0x2c, 0xf3, 0x10, 0xa7, 0x4b,
  0x4a, 0xc5, 0xae, 0xe8, 0x41, 0xf8, 0x13, 0x46, 0x7f, 0x0b, 0xef, 0x57,
  0x28, 0xf5, 0x24, 0x6f, 0xaf, 0xd4, 0xb4, 0x0d, 0xc2, 0x09, 0xde, 0xfe,
  0x18, 0x41, 0xe0, 0xb6, 0x1b, 0x11, 0xee, 0x37, 0x0c, 0xcb, 0xe0, 0xf1,
  0xf4, 0xaa, 0x91, 0xb6, 0xec, 0x01, 0x10, 0xcb, 0x8b, 0x00, 0x01, 0x60,
  0xc4, 0xce, 0xe2, 0x14, 0xf2, 0x3a, 0x69, 0xe9, 0x3a, 0xeb, 0x30, 0x61,
  0x81, 0x0c, 0x33, 0x16, 0xd8, 0xee, 0x17, 0x54, 0xdd, 0xc5, 0x81, 0xac,
  0xd4, 0xd9, 0xed, 0xc9, 0xa4, 0xe0, 0x1c, 0x6f, 0xc3, 0xf5, 0x03, 0x01,
  0x23, 0x44, 0x75, 0x00, 0x50, 0x57, 0xff, 0x61, 0xae, 0xf2, 0x20, 0x33,
  0xd3, 0xe5, 0x3e, 0x3c, 0x07, 0xef, 0x1a, 0xe3, 0xf4, 0x05, 0x16, 0xf8,
  0xcc, 0x18, 0xde, 0x44, 0x58, 0x9b, 0xd4, 0x1a, 0x05, 0x2f, 0x31, 0x3f,
  0x1d, 0x12, 0x2f, 0x7d, 0xe4, 0xe4, 0x2a, 0x81, 0xe4, 0xeb, 0x47, 0x26,
  0x35, 0xce, 0xe7, 0x69, 0x38, 0x2c, 0xdf, 0x9c, 0xe6, 0x07, 0x13, 0xdd,
  0x7f, 0x10, 0xfd, 0xdb, 0x95, 0x19, 0x18, 0xa9, 0xd4, 0xc9, 0xc2, 0xf4,
  0xe3, 0x22, 0xe5, 0xd6, 0x55, 0xde, 0x10, 0xeb, 0x33, 0x9c, 0x00, 0xe1,
  0x10, 0x41, 0x26, 0xf5, 0x8a, 0x40, 0xe9, 0x32, 0x46, 0xbd, 0xeb, 0x0f,
  0xda, 0x2d, 0x66, 0xfb, 0xfa, 0x06, 0x41, 0x2f, 0xe4, 0xfb, 0x0f, 0x81,
  0xdc, 0x05, 0x26, 0x20, 0x04, 0xc3, 0x7f, 0xf0, 0x05, 0xf7, 0xc3, 0x20,
  0x08, 0x14, 0xe5, 0x37, 0xc9, 0x6c, 0xbf, 0x14, 0xdd, 0xec, 0xc5, 0xb8,
  0xb4, 0xfd, 0x02, 0xef, 0x31, 0x0f, 0xed, 0x6f, 0x20, 0xe9, 0x03, 0xfe,
  0x03, 0x9e, 0xb9, 0x1d, 0xe0, 0x42, 0x23, 0xf7, 0x86, 0x28, 0x0c, 0x34,
  0x04, 0xc7, 0xd6, 0x04, 0xec, 0x17, 0x30, 0x31, 0xe3, 0x07, 0x34, 0x41,
  0xbd, 0xd9, 0x3b, 0x9a, 0xe7, 0x7f, 0x05, 0x10, 0xc7, 0xf2, 0x81, 0xbe,
  0xe2, 0xbb, 0xe3, 0x03, 0x8e, 0xe1, 0x22, 0x79, 0xed, 0x0e, 0x16, 0x1b,
  0x2e, 0x50, 0x5f, 0xfe, 0x5f, 0x3e, 0xe3, 0x65, 0xbd, 0xda, 0x3b, 0x37,
  0xd6, 0xe6, 0x51, 0x59, 0x2b, 0xe4, 0x02, 0xf4, 0x19, 0x0c, 0xf6, 0xf3,
  0xf9, 0x1f, 0xbb, 0x9b, 0xca, 0x73, 0xdf, 0x12, 0xc2, 0xaf, 0xd7, 0x0b,
  0xb0, 0xd4, 0x0e, 0x7f, 0x3a, 0xf8, 0xe6, 0x68, 0x09, 0x12, 0x1a, 0x1a,
  0x3d, 0x0a, 0x72, 0x49, 0x4a, 0x02, 0xc6, 0x39, 0xd7, 0xf9, 0xdf, 0x0f,
  0xaa, 0x3b, 0xbb, 0x06, 0xb5, 0xd7, 0x60, 0xb7, 0xd0, 0x04, 0xcb, 0xfd,
  0x45, 0xce, 0xb6, 0x7f, 0x57, 0x06, 0x88, 0xff, 0xef, 0x28, 0xf7, 0x3c,
  0xe1, 0x7f, 0x04, 0xd2, 0x00, 0x30, 0xe6, 0xae, 0x43, 0x95, 0x02, 0x4e,
  0xff, 0xf1, 0x98, 0xc0, 0xee, 0x52, 0xed, 0xab, 0xe1, 0xd8, 0x0a, 0xae,
  0x06, 0x49, 0x17, 0xc4, 0xc5, 0xce, 0xd6, 0xa0, 0xf8, 0x56, 0xdc, 0x27,
  0xd5, 0x07, 0x61, 0xf9, 0x6a, 0xfa, 0xda, 0x6c, 0x6b, 0x3e, 0x33, 0x05,
  0x49, 0x33, 0x24, 0x7c, 0x82, 0xcf, 0x5b, 0x33, 0xf0, 0x10, 0x52, 0x7f,
  0x15, 0x33, 0xf8, 0x0a, 0x70, 0xea, 0xeb, 0x0a, 0x29, 0xe6, 0x0e, 0xfc,
  0x13, 0xec, 0x81, 0x39, 0xc0, 0xcd, 0x43, 0x4b, 0x5f, 0xdb, 0x08, 0xe5,
  0x2c, 0x0b, 0x12, 0xd4, 0xfb, 0xf4, 0xf4, 0x32, 0xcd, 0xf3, 0xce, 0xe1,
  0xf4, 0xc4, 0xdc, 0x3d, 0xc2, 0xd2, 0x4e, 0x46, 0x25, 0x01, 0xe6, 0x51,
  0x63, 0x2b, 0x46, 0xf3, 0x4e, 0xf3, 0xed, 0x7f, 0xc4, 0xdd, 0x5f, 0x32,
  0xcd, 0xce, 0x76, 0x7c, 0xdb, 0xb8, 0x07, 0xca, 0xd4, 0x68, 0xe9, 0x21,
  0xa8, 0x24, 0x3a, 0x10, 0x23, 0xb4, 0xda, 0x09, 0x0c, 0x38, 0x46, 0x22,
  0x20, 0x1a, 0x31, 0x48, 0x81, 0x09, 0x56, 0x0e, 0xe5, 0xf4, 0x3b, 0x3b,
  0x15, 0xea, 0x19, 0xdc, 0xd6, 0x08, 0xdc, 0xfd, 0xe7, 0x01, 0xda, 0xeb,
  0xe6, 0x7f, 0xee, 0xdd, 0x13, 0xe6, 0xca, 0xf1, 0xc9, 0xee, 0x0b, 0x42,
  0x2c, 0x1a, 0xc3, 0x5b, 0xf4, 0xff, 0x09, 0x0f, 0xf2, 0x29, 0xfe, 0xa9,
  0xdc, 0x07, 0x00, 0xb8, 0xd1, 0xfd, 0xf6, 0xc5, 0x1c, 0xfb, 0xd0, 0x81,
  0x03, 0xfd, 0xb9, 0xf3, 0x02, 0xba, 0xd9, 0x16, 0x13, 0xeb, 0x36, 0x13,
  0x21, 0xfe, 0xf2, 0xfb, 0x3e, 0xdc, 0xff, 0xff, 0x04, 0x00, 0x00, 0x00,
  0x00, 0x01, 0x00, 0x00, 0x92, 0xfc, 0xff, 0xff, 0x37, 0x06, 0x00, 0x00,
  0xd9, 0xff, 0xff, 0xff, 0x15, 0x07, 0x00, 0x00, 0x17, 0x08, 0x00, 0x00,
  0xb5, 0xf4, 0xff, 0xff, 0x29, 0x08, 0x00, 0x00, 0xd1, 0xff, 0xff, 0xff,
  0x88, 0xf8, 0xff, 0xff, 0x0d, 0xfd, 0xff, 0xff, 0x05, 0xf8, 0xff, 0xff,
  0x48, 0xfe, 0xff, 0xff, 0x9b, 0x09, 0x00, 0x00, 0x87, 0xf8, 0xff, 0xff,
  0x50, 0xff, 0xff, 0xff, 0x88, 0x05, 0x00, 0x00, 0xe3, 0xfe, 0xff, 0xff,
  0x8d, 0xfa, 0xff, 0xff, 0x34, 0x03, 0x00, 0x00, 0xe5, 0x07, 0x00, 0x00,
  0x3b, 0x01, 0x00, 0x00, 0xf6, 0x05, 0x00, 0x00, 0x16, 0x03, 0x00, 0x00,
  0x7a, 0xfd, 0xff, 0xff, 0xee, 0xfe, 0xff, 0xff, 0x51, 0x04, 0x00, 0x00,
  0x98, 0xfb, 0xff, 0xff, 0xac, 0x0c, 0x00, 0x00, 0xff, 0x05, 0x00, 0x00,
  0x73, 0x06, 0x00, 0x00, 0xc4, 0x01, 0x00, 0x00, 0x8f, 0xf6, 0xff, 0xff,
  0xa8, 0x0b, 0x00, 0x00, 0x28, 0xf7, 0xff, 0xff, 0xf1, 0x06, 0x00, 0x00,
  0x99, 0x08, 0x00, 0x00, 0x80, 0x0f, 0x00, 0x00, 0x0b, 0xfd, 0xff, 0xff,
  0x2e, 0xfd, 0xff, 0xff, 0x72, 0xf6, 0xff, 0xff, 0xa6, 0xea, 0xff, 0xff,
  0xe8, 0x02, 0x00, 0x00, 0xc3, 0xf0, 0xff, 0xff, 0x88, 0x08, 0x00, 0x00,
  0x9e, 0xfa, 0xff, 0xff, 0x33, 0x09, 0x00, 0x00, 0xea, 0xf7, 0xff, 0xff,
  0xc7, 0xff, 0xff, 0xff, 0x4b, 0xfd, 0xff, 0xff, 0xe9, 0xed, 0xff, 0xff,
  0x09, 0x02, 0x00, 0x00, 0xf7, 0xf8, 0xff, 0xff, 0x95, 0x00, 0x00, 0x00,
  0xcd, 0x00, 0x00, 0x00, 0x55, 0xf6, 0xff, 0xff, 0xa3, 0xfb, 0xff, 0xff,
  0x8b, 0xff, 0xff, 0xff, 0xa5, 0x03, 0x00, 0x00, 0xba, 0xee, 0xff, 0xff,
  0x73, 0xf3, 0xff, 0xff, 0x34, 0xef, 0xff, 0xff, 0xb3, 0xfa, 0xff, 0xff,
  0x50, 0x03, 0x00, 0x00, 0x7b, 0x0b, 0x00, 0x00, 0x4a, 0xdd, 0xff, 0xff,
  0x04, 0x00, 0x00, 0x00, 0x00, 0x20, 0x00, 0x00, 0x00, 0x00, 0x00, 0x00,
  0x00, 0x00, 0x00, 0x00, 0x00, 0x00, 0x00, 0x00, 0x00, 0x00, 0x00, 0x00,
  0x00, 0x00, 0x00, 0x00, 0x00, 0x00, 0x00, 0x00, 0x00, 0x00, 0x00, 0x00,
  0x00, 0x00, 0x00, 0x00, 0x00, 0x00, 0x00, 0x00, 0x00, 0x00, 0x00, 0x00,
  0x00, 0x00, 0x00, 0x00, 0x00, 0x00, 0x00, 0x00, 0x00, 0x00, 0x00, 0x00,
  0x00, 0x00, 0x00, 0x00, 0x00, 0x00, 0x00, 0x00, 0x00, 0x00, 0x00, 0x00,
  0xb4, 0xcb, 0x2f, 0x5a, 0x51, 0x43, 0x46, 0x26, 0xde, 0x1f, 0xf0, 0x0f,
  0x57, 0x11, 0xf9, 0x0d, 0xa2, 0x0c, 0xbb, 0xf4, 0x0e, 0xd3, 0x45, 0xaa,
  0xa6, 0xae, 0xc2, 0x39, 0x30, 0x43, 0x94, 0xe1, 0x0a, 0x1b, 0x11, 0x16,
  0x3a, 0xef, 0xd9, 0x92, 0x81, 0x1c, 0xeb, 0x30, 0xd5, 0x36, 0x49, 0xe6,
  0x97, 0x08, 0x4d, 0xfc, 0x16, 0xff, 0x8f, 0x2a, 0x0e, 0x33, 0xfa, 0x02,
  0xad, 0xee, 0x24, 0x26, 0x00, 0x00, 0x00, 0x00, 0x00, 0x00, 0x00, 0x00,
  0x00, 0x00, 0x00, 0x00, 0x00, 0x00, 0x00, 0x00, 0x00, 0x00, 0x00, 0x00,
  0x00, 0x00, 0x00, 0x00, 0x00, 0x00, 0x00, 0x00, 0x00, 0x00, 0x00, 0x00,
  0x00, 0x00, 0x00, 0x00, 0x00, 0x00, 0x00, 0x00, 0x00, 0x00, 0x00, 0x00,
  0x00, 0x00, 0x00, 0x00, 0x00, 0x00, 0x00, 0x00, 0x00, 0x00, 0x00, 0x00,
  0x00, 0x00, 0x00, 0x00, 0x00, 0x00, 0x00, 0x00, 0x00, 0x00, 0x00, 0x00,
  0x00, 0x00, 0x00, 0x00, 0x00, 0x00, 0x00, 0x00, 0x00, 0x00, 0x00, 0x00,
  0x00, 0x00, 0x00, 0x00, 0x00, 0x00, 0x00, 0x00, 0x00, 0x00, 0x00, 0x00,
  0x00, 0x00, 0x00, 0x00, 0x00, 0x00, 0x00, 0x00, 0x00, 0x00, 0x00, 0x00,
  0x00, 0x00, 0x00, 0x00, 0x00, 0x00, 0x00, 0x00, 0x00, 0x00, 0x00, 0x00,
  0x00, 0x00, 0x00, 0x00, 0x00, 0x00, 0x00, 0x00, 0x00, 0x00, 0x00, 0x00,
  0xdf, 0x2b, 0xbf, 0x0d, 0x31, 0x81, 0xe7, 0xef, 0xc2, 0xa8, 0xfb, 0x40,
  0x31, 0xa4, 0xde, 0x15, 0x2f, 0xfc, 0xea, 0x1e, 0x39, 0xcf, 0x04, 0xf7,
  0xb0, 0xe7, 0xdb, 0xdb, 0x24, 0x0e, 0xf5, 0xff, 0xeb, 0x8d, 0x35, 0x56,
  0x28, 0x0d, 0x22, 0xef, 0x1f, 0xe4, 0x08, 0x34, 0xd2, 0xf6, 0xef, 0x01,
  0xfc, 0xfb, 0xe6, 0xe6, 0x3f, 0x00, 0xd6, 0x29, 0x14, 0xc7, 0x28, 0xd1,
  0xe0, 0x04, 0x2e, 0xf8, 0x00, 0x00, 0x00, 0x00, 0x00, 0x00, 0x00, 0x00,
  0x00, 0x00, 0x00, 0x00, 0x00, 0x00, 0x00, 0x00, 0x00, 0x00, 0x00, 0x00,
  0x00, 0x00, 0x00, 0x00, 0x00, 0x00, 0x00, 0x00, 0x00, 0x00, 0x00, 0x00,
  0x00, 0x00, 0x00, 0x00, 0x00, 0x00, 0x00, 0x00, 0x00, 0x00, 0x00, 0x00,
  0x00, 0x00, 0x00, 0x00, 0x00, 0x00, 0x00, 0x00, 0x00, 0x00, 0x00, 0x00,
  0x00, 0x00, 0x00, 0x00, 0x00, 0x00, 0x00, 0x00, 0x00, 0x00, 0x00, 0x00,
  0x00, 0x00, 0x00, 0x00, 0x00, 0x00, 0x00, 0x00, 0x00, 0x00, 0x00, 0x00,
  0x00, 0x00, 0x00, 0x00, 0x00, 0x00, 0x00, 0x00, 0x00, 0x00, 0x00, 0x00,
  0x00, 0x00, 0x00, 0x00, 0x00, 0x00, 0x00, 0x00, 0x00, 0x00, 0x00, 0x00,
  0x00, 0x00, 0x00, 0x00, 0x00, 0x00, 0x00, 0x00, 0x00, 0x00, 0x00, 0x00,
  0x00, 0x00, 0x00, 0x00, 0x00, 0x00, 0x00, 0x00, 0x00, 0x00, 0x00, 0x00,
  0x4e, 0xeb, 0xb1, 0xca, 0xe6, 0xb6, 0xb0, 0x65, 0x0f, 0xe6, 0x54, 0x0d,
  0x9f, 0xcd, 0x51, 0x7f, 0xbd, 0x2c, 0x2d, 0xab, 0xc1, 0x62, 0xad, 0x5a,
  0x0c, 0x2e, 0x37, 0x22, 0xd2, 0xcb, 0x2e, 0x86, 0x07, 0xec, 0x6a, 0x86,
  0xa7, 0xac, 0x4e, 0x61, 0x27, 0xf5, 0x2d, 0x18, 0x4f, 0xe4, 0xce, 0x51,
  0x26, 0x45, 0x2e, 0x2f, 0xc8, 0x53, 0x03, 0xc5, 0xbf, 0x7e, 0x2e, 0xad,
  0x21, 0x47, 0x96, 0xe6, 0x92, 0x95, 0x6c, 0x69, 0x76, 0x41, 0x5c, 0x23,
  0xb8, 0x41, 0xe5, 0x43, 0x48, 0x36, 0x0b, 0xea, 0xc7, 0xd5, 0xd5, 0x53,
  0x12, 0x90, 0x1c, 0xad, 0xcc, 0x9d, 0xb6, 0x23, 0x64, 0x51, 0x90, 0x3a,
  0x6d, 0x04, 0x03, 0x14, 0x1d, 0xf3, 0xbd, 0xb6, 0x81, 0x44, 0xb1, 0x4c,
  0xad, 0x54, 0x3b, 0x8b, 0x90, 0xf0, 0x29, 0xf7, 0x08, 0xac, 0x99, 0x27,
  0x3c, 0xe6, 0xce, 0x15, 0xa6, 0xc6, 0x08, 0x14, 0x4b, 0xcf, 0x31, 0xcd,
  0xd4, 0x15, 0xeb, 0x00, 0x20, 0xd9, 0x05, 0xbf, 0xb0, 0x13, 0x3f, 0x02,
  0xd3, 0x27, 0xf3, 0xa1, 0xdd, 0x2b, 0xb7, 0x04, 0x4f, 0x55, 0x4f, 0xea,
  0x81, 0xa4, 0x4b, 0xdd, 0xf8, 0x3b, 0xed, 0xa6, 0xa4, 0xea, 0x3f, 0x11,
  0x13, 0xd2, 0x23, 0xde, 0x4d, 0xc6, 0xdb, 0x4a, 0x2e, 0x41, 0x0c, 0x46,
  0xb3, 0x49, 0x30, 0x02, 0xd9, 0x2c, 0x15, 0x29, 0x21, 0x04, 0xbb, 0xec,
  0x00, 0x00, 0x00, 0x00, 0x00, 0x00, 0x00, 0x00, 0x00, 0x00, 0x00, 0x00,
  0x00, 0x00, 0x00, 0x00, 0x00, 0x00, 0x00, 0x00, 0x00, 0x00, 0x00, 0x00,
  0x00, 0x00, 0x00, 0x00, 0x00, 0x00, 0x00, 0x00, 0x00, 0x00, 0x00, 0x00,
  0x00, 0x00, 0x00, 0x00, 0x00, 0x00, 0x00, 0x00, 0x00, 0x00, 0x00, 0x00,
  0x00, 0x00, 0x00, 0x00, 0x00, 0x00, 0x00, 0x00, 0x00, 0x00, 0x00, 0x00,
  0x00, 0x00, 0x00, 0x00, 0x00, 0x00, 0x00, 0x00, 0x00, 0x00, 0x00, 0x00,
  0x00, 0x00, 0x00, 0x00, 0x00, 0x00, 0x00, 0x00, 0x00, 0x00, 0x00, 0x00,
  0x00, 0x00, 0x00, 0x00, 0x00, 0x00, 0x00, 0x00, 0x00, 0x00, 0x00, 0x00,
  0x00, 0x00, 0x00, 0x00, 0x00, 0x00, 0x00, 0x00, 0x00, 0x00, 0x00, 0x00,
  0x00, 0x00, 0x00, 0x00, 0x00, 0x00, 0x00, 0x00, 0x00, 0x00, 0x00, 0x00,
  0x00, 0x00, 0x00, 0x00, 0x00, 0x00, 0x00, 0x00, 0x00, 0x00, 0x00, 0x00,
  0x00, 0x00, 0x00, 0x00, 0x00, 0x00, 0x00, 0x00, 0x00, 0x00, 0x00, 0x00,
  0x00, 0x00, 0x00, 0x00, 0x00, 0x00, 0x00, 0x00, 0x00, 0x00, 0x00, 0x00,
  0x00, 0x00, 0x00, 0x00, 0x00, 0x00, 0x00, 0x00, 0x00, 0x00, 0x00, 0x00,
  0x00, 0x00, 0x00, 0x00, 0x00, 0x00, 0x00, 0x00, 0x00, 0x00, 0x00, 0x00,
  0x00, 0x00, 0x00, 0x00, 0x00, 0x00, 0x00, 0x00, 0x00, 0x00, 0x00, 0x00,
  0x00, 0x00, 0x00, 0x00, 0x00, 0x00, 0x00, 0x00, 0x00, 0x00, 0x00, 0x00,
  0x00, 0x00, 0x00, 0x00, 0x00, 0x00, 0x00, 0x00, 0x00, 0x00, 0x00, 0x00,
  0x00, 0x00, 0x00, 0x00, 0x00, 0x00, 0x00, 0x00, 0x00, 0x00, 0x00, 0x00,
  0x00, 0x00, 0x00, 0x00, 0x00, 0x00, 0x00, 0x00, 0x00, 0x00, 0x00, 0x00,
  0x00, 0x00, 0x00, 0x00, 0x00, 0x00, 0x00, 0x00, 0x00, 0x00, 0x00, 0x00,
  0x00, 0x00, 0x00, 0x00, 0xa4, 0x92, 0x2f, 0x4b, 0x57, 0x20, 0xee, 0x29,
  0xff, 0x61, 0x31, 0x27, 0x2b, 0x23, 0x16, 0xf5, 0xcd, 0x05, 0xd7, 0x45,
  0xf0, 0x9d, 0x00, 0xb8, 0xa2, 0xa9, 0x97, 0x2e, 0x4c, 0x10, 0xa4, 0xed,
  0x1d, 0x2c, 0xfb, 0x1d, 0x2e, 0xec, 0xd4, 0x8c, 0x99, 0x5f, 0xd1, 0x34,
  0xc5, 0x1d, 0xf7, 0xa8, 0x81, 0x17, 0x53, 0x06, 0x43, 0xf0, 0xab, 0x17,
  0x4a, 0xe5, 0x06, 0xdb, 0xe2, 0xd0, 0xe9, 0x36, 0x50, 0xfc, 0xf8, 0xe6,
  0xf0, 0xd6, 0xc4, 0x48, 0xde, 0x0b, 0x1e, 0xa0, 0xe5, 0xbd, 0x6d, 0x5b,
  0xdb, 0x00, 0x4e, 0x9b, 0x81, 0x2c, 0xc8, 0xff, 0x57, 0x5d, 0x4e, 0x5b,
  0x13, 0xf2, 0x36, 0xa2, 0x21, 0x9b, 0x32, 0xd9, 0xca, 0xad, 0x5c, 0x3f,
  0xeb, 0x2b, 0x57, 0xf8, 0x34, 0xac, 0x8d, 0x4e, 0x02, 0x00, 0x00, 0x4c,
  0x82, 0x55, 0x01, 0xe6, 0xcd, 0x66, 0x37, 0x91, 0xfd, 0x30, 0xc4, 0x25,
  0x3c, 0xf0, 0xb8, 0xcc, 0xc5, 0x10, 0xe6, 0x28, 0x1a, 0xc7, 0x58, 0xd1,
  0xd1, 0x1e, 0x61, 0x36, 0xb3, 0x2c, 0x36, 0x81, 0xcf, 0x62, 0xca, 0x5b,
  0x56, 0x5c, 0x55, 0x4e, 0x03, 0x92, 0x5f, 0xdc, 0x0c, 0xb3, 0x12, 0xbd,
  0xb5, 0xb9, 0x5f, 0x06, 0xc6, 0xd8, 0xfb, 0xc2, 0x3a, 0xfa, 0xab, 0x0c,
  0x39, 0x1a, 0xee, 0x4f, 0x87, 0x34, 0x0e, 0xdd, 0xb0, 0x6b, 0x3a, 0xec,
  0x12, 0x32, 0xcd, 0xfc, 0x00, 0x00, 0x00, 0x00, 0x00, 0x00, 0x00, 0x00,
  0x00, 0x00, 0x00, 0x00, 0x00, 0x00, 0x00, 0x00, 0x00, 0x00, 0x00, 0x00,
  0x00, 0x00, 0x00, 0x00, 0x00, 0x00, 0x00, 0x00, 0x00, 0x00, 0x00, 0x00,
  0x00, 0x00, 0x00, 0x00, 0x00, 0x00, 0x00, 0x00, 0x00, 0x00, 0x00, 0x00,
  0x00, 0x00, 0x00, 0x00, 0x00, 0x00, 0x00, 0x00, 0x00, 0x00, 0x00, 0x00,
  0x00, 0x00, 0x00, 0x00, 0x00, 0x00, 0x00, 0x00, 0x00, 0x00, 0x00, 0x00,
  0x00, 0x00, 0x00, 0x00, 0x00, 0x00, 0x00, 0x00, 0x00, 0x00, 0x00, 0x00,
  0x00, 0x00, 0x00, 0x00, 0x00, 0x00, 0x00, 0x00, 0x00, 0x00, 0x00, 0x00,
  0x00, 0x00, 0x00, 0x00, 0x00, 0x00, 0x00, 0x00, 0x00, 0x00, 0x00, 0x00,
  0x00, 0x00, 0x00, 0x00, 0x00, 0x00, 0x00, 0x00, 0x00, 0x00, 0x00, 0x00,
  0x00, 0x00, 0x00, 0x00, 0x00, 0x00, 0x00, 0x00, 0x00, 0x00, 0x00, 0x00,
  0xe4, 0x41, 0xd2, 0xd0, 0xde, 0x93, 0xc5, 0x2a, 0xd9, 0xae, 0x15, 0x06,
  0xed, 0xa0, 0x31, 0x4f, 0xf0, 0x22, 0x0c, 0xee, 0xf5, 0x07, 0xfb, 0x0b,
  0xfc, 0x18, 0x13, 0x4c, 0x29, 0xec, 0xf5, 0xa7, 0x01, 0x81, 0x5d, 0x03,
  0x28, 0xf8, 0x17, 0x3e, 0x29, 0x03, 0x1f, 0xf5, 0x1a, 0xf7, 0x9d, 0xf1,
  0xed, 0x03, 0x06, 0xeb, 0x11, 0xf8, 0xf3, 0xff, 0xee, 0x22, 0x26, 0x96,
  0x25, 0x3a, 0xed, 0x13, 0xad, 0xb8, 0x1a, 0x5a, 0x43, 0x4c, 0x5c, 0x1f,
  0xee, 0x24, 0xf5, 0x27, 0x05, 0x23, 0x13, 0x14, 0xb3, 0xf3, 0xed, 0x24,
  0x05, 0x99, 0x28, 0xc3, 0x9d, 0xce, 0xc5, 0x13, 0x62, 0x7f, 0xbf, 0x24,
  0x54, 0x24, 0xe6, 0x30, 0x3c, 0xd9, 0x01, 0xa5, 0x9a, 0x4d, 0xc4, 0x2f,
  0xa3, 0x54, 0x38, 0x93, 0x91, 0x0c, 0x3e, 0xe1, 0x0b, 0xd5, 0xc7, 0x22,
  0x14, 0x01, 0xb2, 0xef, 0xaf, 0xbb, 0x15, 0x25, 0x00, 0x00, 0x00, 0x00,
  0x00, 0x00, 0x00, 0x00, 0x00, 0x00, 0x00, 0x00, 0x00, 0x00, 0x00, 0x00,
  0x00, 0x00, 0x00, 0x00, 0x00, 0x00, 0x00, 0x00, 0x00, 0x00, 0x00, 0x00,
  0x00, 0x00, 0x00, 0x00, 0x00, 0x00, 0x00, 0x00, 0x00, 0x00, 0x00, 0x00,
  0x00, 0x00, 0x00, 0x00, 0x00, 0x00, 0x00, 0x00, 0x00, 0x00, 0x00, 0x00,
  0x00, 0x00, 0x00, 0x00, 0x00, 0x00, 0x00, 0x00, 0x00, 0x00, 0x00, 0x00,
  0x00, 0x00, 0x00, 0x00, 0x00, 0x00, 0x00, 0x00, 0x00, 0x00, 0x00, 0x00,
  0x00, 0x00, 0x00, 0x00, 0x00, 0x00, 0x00, 0x00, 0x00, 0x00, 0x00, 0x00,
  0x00, 0x00, 0x00, 0x00, 0x00, 0x00, 0x00, 0x00, 0x00, 0x00, 0x00, 0x00,
  0x00, 0x00, 0x00, 0x00, 0x00, 0x00, 0x00, 0x00, 0x00, 0x00, 0x00, 0x00,
  0x00, 0x00, 0x00, 0x00, 0x00, 0x00, 0x00, 0x00, 0x00, 0x00, 0x00, 0x00,
  0x00, 0x00, 0x00, 0x00, 0x00, 0x00, 0x00, 0x00, 0x00, 0x00, 0x00, 0x00,
  0x00, 0x00, 0x00, 0x00, 0x00, 0x00, 0x00, 0x00, 0x00, 0x00, 0x00, 0x00,
  0x00, 0x00, 0x00, 0x00, 0x00, 0x00, 0x00, 0x00, 0x00, 0x00, 0x00, 0x00,
  0x00, 0x00, 0x00, 0x00, 0x00, 0x00, 0x00, 0x00, 0x00, 0x00, 0x00, 0x00,
  0x00, 0x00, 0x00, 0x00, 0x00, 0x00, 0x00, 0x00, 0x00, 0x00, 0x00, 0x00,
  0x00, 0x00, 0x00, 0x00, 0x00, 0x00, 0x00, 0x00, 0x00, 0x00, 0x00, 0x00,
  0x00, 0x00, 0x00, 0x00, 0x00, 0x00, 0x00, 0x00, 0x00, 0x00, 0x00, 0x00,
  0x00, 0x00, 0x00, 0x00, 0x00, 0x00, 0x00, 0x00, 0x00, 0x00, 0x00, 0x00,
  0x00, 0x00, 0x00, 0x00, 0x00, 0x00, 0x00, 0x00, 0x00, 0x00, 0x00, 0x00,
  0x00, 0x00, 0x00, 0x00, 0x00, 0x00, 0x00, 0x00, 0x00, 0x00, 0x00, 0x00,
  0x00, 0x00, 0x00, 0x00, 0x00, 0x00, 0x00, 0x00, 0x00, 0x00, 0x00, 0x00,
  0xc7, 0xc0, 0x47, 0x24, 0x4b, 0x23, 0x1c, 0xfc, 0xdd, 0x57, 0x04, 0x1a,
  0x25, 0x16, 0xcd, 0xf1, 0xc8, 0xda, 0xcd, 0x3f, 0x1d, 0xb6, 0x4b, 0xa2,
  0xb9, 0xb9, 0xc6, 0x36, 0x3d, 0x5e, 0xc2, 0x2c, 0x33, 0x43, 0xd9, 0x0f,
  0x28, 0x13, 0xee, 0xcd, 0x81, 0x51, 0xd4, 0x03, 0xa5, 0x5d, 0x31, 0xc8,
  0xa2, 0xd9, 0x2e, 0x02, 0x08, 0xf4, 0xab, 0x27, 0x34, 0xff, 0xd0, 0xf9,
  0xb3, 0xde, 0x2d, 0x46, 0xda, 0xba, 0x41, 0x37, 0x73, 0x6c, 0x58, 0x11,
  0xd9, 0x27, 0xc1, 0x43, 0x06, 0x59, 0xb3, 0xb4, 0xe0, 0xfa, 0xcc, 0x68,
  0x39, 0xa4, 0x31, 0xb2, 0x8d, 0xc9, 0xb5, 0xf9, 0x14, 0x7f, 0xdf, 0x37,
  0x74, 0x53, 0x05, 0x3c, 0x37, 0xf3, 0xb8, 0xd0, 0xb6, 0x5a, 0xa5, 0x10,
  0xd9, 0x60, 0x3c, 0x8a, 0xab, 0xc4, 0x24, 0xd3, 0xf0, 0xb3, 0xd4, 0x34,
  0x1b, 0xea, 0xc2, 0x00, 0xc3, 0xc1, 0xf2, 0x4e, 0x00, 0x00, 0x00, 0x00,
  0x00, 0x00, 0x00, 0x00, 0x00, 0x00, 0x00, 0x00, 0x00, 0x00, 0x00, 0x00,
  0x00, 0x00, 0x00, 0x00, 0x00, 0x00, 0x00, 0x00, 0x00, 0x00, 0x00, 0x00,
  0x00, 0x00, 0x00, 0x00, 0x00, 0x00, 0x00, 0x00, 0x00, 0x00, 0x00, 0x00,
  0x00, 0x00, 0x00, 0x00, 0x00, 0x00, 0x00, 0x00, 0x00, 0x00, 0x00, 0x00,
  0x00, 0x00, 0x00, 0x00, 0x00, 0x00, 0x00, 0x00, 0x00, 0x00, 0x00, 0x00,
  0xea, 0xac, 0x3e, 0x49, 0x2a, 0x1c, 0x2f, 0x2d, 0xb5, 0x25, 0x15, 0xfe,
  0x43, 0x31, 0x08, 0xda, 0xd7, 0x14, 0xc3, 0x46, 0xfb, 0xd9, 0x46, 0xc2,
  0xdc, 0xd0, 0xce, 0x1e, 0x4f, 0x28, 0xdb, 0xf2, 0x33, 0xf0, 0xf9, 0x15,
  0x38, 0xef, 0xd9, 0xbb, 0xc0, 0x0a, 0xdc, 0x22, 0xe9, 0x51, 0x07, 0xb8,
  0x81, 0x06, 0x3d, 0x11, 0x37, 0xf7, 0xb3, 0x10, 0xff, 0x08, 0xc4, 0x1d,
  0xa2, 0xaf, 0x24, 0x19, 0x00, 0x00, 0x00, 0x00, 0x00, 0x00, 0x00, 0x00,
  0x00, 0x00, 0x00, 0x00, 0x00, 0x00, 0x00, 0x00, 0x00, 0x00, 0x00, 0x00,
  0x00, 0x00, 0x00, 0x00, 0x00, 0x00, 0x00, 0x00, 0x00, 0x00, 0x00, 0x00,
  0x00, 0x00, 0x00, 0x00, 0x00, 0x00, 0x00, 0x00, 0x00, 0x00, 0x00, 0x00,
  0x00, 0x00, 0x00, 0x00, 0x00, 0x00, 0x00, 0x00, 0x00, 0x00, 0x00, 0x00,
  0x00, 0x00, 0x00, 0x00, 0x00, 0x00, 0x00, 0x00, 0x00, 0x00, 0x00, 0x00,
  0x00, 0x00, 0x00, 0x00, 0x00, 0x00, 0x00, 0x00, 0x00, 0x00, 0x00, 0x00,
  0x00, 0x00, 0x00, 0x00, 0x00, 0x00, 0x00, 0x00, 0x00, 0x00, 0x00, 0x00,
  0x00, 0x00, 0x00, 0x00, 0x00, 0x00, 0x00, 0x00, 0x00, 0x00, 0x00, 0x00,
  0x00, 0x00, 0x00, 0x00, 0x00, 0x00, 0x00, 0x00, 0x00, 0x00, 0x00, 0x00,
  0x00, 0x00, 0x00, 0x00, 0x00, 0x00, 0x00, 0x00, 0x00, 0x00, 0x00, 0x00,
  0xdb, 0xc3, 0x5a, 0x37, 0x55, 0x49, 0x12, 0x18, 0xe9, 0x59, 0xe1, 0x39,
  0x32, 0x19, 0x03, 0xcf, 0xcd, 0xf2, 0xd1, 0x50, 0x39, 0xe8, 0x4f, 0xa3,
  0xdc, 0xd4, 0xc9, 0x2c, 0x3c, 0x7f, 0xa6, 0x29, 0x36, 0x3f, 0xdb, 0x23,
  0x45, 0x11, 0xf3, 0x91, 0x93, 0x43, 0xb1, 0x34, 0xa9, 0x4c, 0x14, 0xb0,
  0x9e, 0xe8, 0x16, 0xef, 0x09, 0xb3, 0xc8, 0x22, 0x52, 0x19, 0xb1, 0xfc,
  0xa2, 0xb3, 0x12, 0x29, 0x00, 0x00, 0x00, 0x00, 0x00, 0x00, 0x00, 0x00,
  0x00, 0x00, 0x00, 0x00, 0x00, 0x00, 0x00, 0x00, 0x00, 0x00, 0x00, 0x00,
  0x00, 0x00, 0x00, 0x00, 0x00, 0x00, 0x00, 0x00, 0x00, 0x00, 0x00, 0x00,
  0x00, 0x00, 0x00, 0x00, 0x00, 0x00, 0x00, 0x00, 0x00, 0x00, 0x00, 0x00,
  0x00, 0x00, 0x00, 0x00, 0x00, 0x00, 0x00, 0x00, 0x00, 0x00, 0x00, 0x00,
  0x00, 0x00, 0x00, 0x00, 0x00, 0x00, 0x00, 0x00, 0x00, 0x00, 0x00, 0x00,
  0x00, 0x00, 0x00, 0x00, 0x00, 0x00, 0x00, 0x00, 0x00, 0x00, 0x00, 0x00,
  0x00, 0x00, 0x00, 0x00, 0x00, 0x00, 0x00, 0x00, 0x00, 0x00, 0x00, 0x00,
  0x00, 0x00, 0x00, 0x00, 0x00, 0x00, 0x00, 0x00, 0x00, 0x00, 0x00, 0x00,
  0x00, 0x00, 0x00, 0x00, 0x00, 0x00, 0x00, 0x00, 0x00, 0x00, 0x00, 0x00,
  0x00, 0x00, 0x00, 0x00, 0x00, 0x00, 0x00, 0x00, 0x00, 0x00, 0x00, 0x00,
  0x00, 0x00, 0x00, 0x00, 0x00, 0x00, 0x00, 0x00, 0x00, 0x00, 0x00, 0x00,
  0x00, 0x00, 0x00, 0x00, 0x00, 0x00, 0x00, 0x00, 0x00, 0x00, 0x00, 0x00,
  0x00, 0x00, 0x00, 0x00, 0x00, 0x00, 0x00, 0x00, 0x00, 0x00, 0x00, 0x00,
  0x00, 0x00, 0x00, 0x00, 0x00, 0x00, 0x00, 0x00, 0x00, 0x00, 0x00, 0x00,
  0x00, 0x00, 0x00, 0x00, 0x00, 0x00, 0x00, 0x00, 0x00, 0x00, 0x00, 0x00,
  0x00, 0x00, 0x00, 0x00, 0x00, 0x00, 0x00, 0x00, 0x00, 0x00, 0x00, 0x00,
  0x00, 0x00, 0x00, 0x00, 0x00, 0x00, 0x00, 0x00, 0x00, 0x00, 0x00, 0x00,
  0x00, 0x00, 0x00, 0x00, 0x00, 0x00, 0x00, 0x00, 0x00, 0x00, 0x00, 0x00,
  0x00, 0x00, 0x00, 0x00, 0x00, 0x00, 0x00, 0x00, 0x00, 0x00, 0x00, 0x00,
  0x00, 0x00, 0x00, 0x00, 0x00, 0x00, 0x00, 0x00, 0x00, 0x00, 0x00, 0x00,
  0x00, 0x00, 0x00, 0x00, 0x00, 0x00, 0x00, 0x00, 0x00, 0x00, 0x00, 0x00,
  0x00, 0x00, 0x00, 0x00, 0x00, 0x00, 0x00, 0x00, 0x00, 0x00, 0x00, 0x00,
  0x00, 0x00, 0x00, 0x00, 0x00, 0x00, 0x00, 0x00, 0x00, 0x00, 0x00, 0x00,
  0x00, 0x00, 0x00, 0x00, 0x00, 0x00, 0x00, 0x00, 0x00, 0x00, 0x00, 0x00,
  0x00, 0x00, 0x00, 0x00, 0x00, 0x00, 0x00, 0x00, 0x00, 0x00, 0x00, 0x00,
  0x00, 0x00, 0x00, 0x00, 0x00, 0x00, 0x00, 0x00, 0x00, 0x00, 0x00, 0x00,
  0x00, 0x00, 0x00, 0x00, 0x00, 0x00, 0x00, 0x00, 0x00, 0x00, 0x00, 0x00,
  0x00, 0x00, 0x00, 0x00, 0x00, 0x00, 0x00, 0x00, 0x00, 0x00, 0x00, 0x00,
  0x00, 0x00, 0x00, 0x00, 0x00, 0x00, 0x00, 0x00, 0x00, 0x00, 0x00, 0x00,
  0x00, 0x00, 0x00, 0x00, 0x00, 0x00, 0x00, 0x00, 0x00, 0x00, 0x00, 0x00,
  0x00, 0x00, 0x00, 0x00, 0x00, 0x00, 0x00, 0x00, 0x00, 0x00, 0x00, 0x00,
  0x00, 0x00, 0x00, 0x00, 0x00, 0x00, 0x00, 0x00, 0x00, 0x00, 0x00, 0x00,
  0x00, 0x00, 0x00, 0x00, 0x00, 0x00, 0x00, 0x00, 0x00, 0x00, 0x00, 0x00,
  0x00, 0x00, 0x00, 0x00, 0x00, 0x00, 0x00, 0x00, 0x00, 0x00, 0x00, 0x00,
  0x00, 0x00, 0x00, 0x00, 0x00, 0x00, 0x00, 0x00, 0x00, 0x00, 0x00, 0x00,
  0x00, 0x00, 0x00, 0x00, 0x00, 0x00, 0x00, 0x00, 0x00, 0x00, 0x00, 0x00,
  0x00, 0x00, 0x00, 0x00, 0x00, 0x00, 0x00, 0x00, 0x00, 0x00, 0x00, 0x00,
  0x00, 0x00, 0x00, 0x00, 0x00, 0x00, 0x00, 0x00, 0x00, 0x00, 0x00, 0x00,
  0x00, 0x00, 0x00, 0x00, 0x00, 0x00, 0x00, 0x00, 0x00, 0x00, 0x00, 0x00,
  0x00, 0x00, 0x00, 0x00, 0x00, 0x00, 0x00, 0x00, 0x00, 0x00, 0x00, 0x00,
  0x00, 0x00, 0x00, 0x00, 0x00, 0x00, 0x00, 0x00, 0x00, 0x00, 0x00, 0x00,
  0x00, 0x00, 0x00, 0x00, 0x00, 0x00, 0x00, 0x00, 0x00, 0x00, 0x00, 0x00,
  0x26, 0xfb, 0xe7, 0xdc, 0xf1, 0xb0, 0xcf, 0x50, 0xdc, 0x05, 0x34, 0xe8,
  0xe2, 0xb9, 0x51, 0x62, 0xd7, 0x28, 0x44, 0xd1, 0xb9, 0x2f, 0xab, 0x45,
  0x35, 0x2f, 0x32, 0x42, 0x28, 0x03, 0x42, 0xa0, 0x0b, 0xac, 0x43, 0xc5,
  0xf3, 0xc5, 0x55, 0x36, 0xff, 0x01, 0x2b, 0x06, 0x43, 0xd8, 0xa5, 0x21,
  0x1d, 0x28, 0x1d, 0x2b, 0xdf, 0x49, 0x05, 0xe3, 0xcd, 0x37, 0x31, 0x81,
  0x26, 0x3c, 0xd0, 0x20, 0xca, 0xc2, 0x0e, 0x2e, 0x5d, 0x31, 0x44, 0x08,
  0xff, 0x44, 0xf3, 0x09, 0xef, 0x0d, 0xf2, 0xf3, 0xd9, 0xd2, 0xfd, 0x3c,
  0x25, 0xb8, 0x55, 0xd1, 0xd0, 0xbc, 0xc2, 0x49, 0x43, 0x41, 0x85, 0xf6,
  0x5a, 0x1b, 0x12, 0xea, 0x43, 0x0d, 0xd0, 0xa1, 0x90, 0x2c, 0xdb, 0x39,
  0xad, 0xff, 0x1e, 0xb7, 0x86, 0x09, 0x1a, 0xd5, 0x49, 0xb3, 0x81, 0x0a,
  0x10, 0x22, 0xc2, 0xeb, 0xae, 0xac, 0x0f, 0x42, 0xfa, 0x23, 0xbe, 0x00,
  0x09, 0x81, 0xe1, 0x3a, 0xbe, 0xd0, 0x1d, 0xf1, 0x1a, 0xb3, 0x20, 0x45,
  0xf5, 0x21, 0x2f, 0x00, 0xfa, 0x2a, 0xf4, 0xf5, 0xf9, 0x3b, 0x02, 0x46,
  0x14, 0xed, 0xf7, 0xcb, 0xe6, 0x86, 0x4d, 0xf4, 0x08, 0xc9, 0x46, 0x1e,
  0x05, 0x18, 0x16, 0x17, 0x2e, 0xd4, 0xaf, 0x03, 0xff, 0x1d, 0x06, 0xf8,
  0x09, 0x26, 0x21, 0xdb, 0xfd, 0x0d, 0x44, 0xad, 0xfb, 0x1b, 0xe8, 0x2b,
  0x00, 0x00, 0x00, 0x00, 0x00, 0x00, 0x00, 0x00, 0x00, 0x00, 0x00, 0x00,
  0x00, 0x00, 0x00, 0x00, 0x00, 0x00, 0x00, 0x00, 0x00, 0x00, 0x00, 0x00,
  0x00, 0x00, 0x00, 0x00, 0x00, 0x00, 0x00, 0x00, 0x00, 0x00, 0x00, 0x00,
  0x00, 0x00, 0x00, 0x00, 0x00, 0x00, 0x00, 0x00, 0x00, 0x00, 0x00, 0x00,
  0x00, 0x00, 0x00, 0x00, 0x00, 0x00, 0x00, 0x00, 0x00, 0x00, 0x00, 0x00,
  0x00, 0x00, 0x00, 0x00, 0xd6, 0xe3, 0x64, 0x6a, 0x4f, 0x1f, 0x72, 0xdd,
  0x9f, 0x47, 0xb0, 0xcc, 0x2d, 0x19, 0xc6, 0xc2, 0xa9, 0x11, 0x97, 0x6d,
  0x07, 0x98, 0x0b, 0xdf, 0xb0, 0xc7, 0xab, 0x40, 0x70, 0x7f, 0xc0, 0x1f,
  0x4c, 0x45, 0xbe, 0xe4, 0xff, 0x30, 0xdb, 0xaa, 0xb6, 0x57, 0xe7, 0x4b,
  0x81, 0x25, 0x52, 0xcd, 0xc8, 0xcd, 0x35, 0x0d, 0x36, 0x92, 0xc7, 0xfb,
  0x62, 0x13, 0x94, 0x3c, 0xd4, 0xba, 0x21, 0x35, 0x00, 0x00, 0x00, 0x00,
  0x00, 0x00, 0x00, 0x00, 0x00, 0x00, 0x00, 0x00, 0x00, 0x00, 0x00, 0x00,
  0x00, 0x00, 0x00, 0x00, 0x00, 0x00, 0x00, 0x00, 0x00, 0x00, 0x00, 0x00,
  0x00, 0x00, 0x00, 0x00, 0x00, 0x00, 0x00, 0x00, 0x00, 0x00, 0x00, 0x00,
  0x00, 0x00, 0x00, 0x00, 0x00, 0x00, 0x00, 0x00, 0x00, 0x00, 0x00, 0x00,
  0x00, 0x00, 0x00, 0x00, 0x00, 0x00, 0x00, 0x00, 0x00, 0x00, 0x00, 0x00,
  0x00, 0x00, 0x00, 0x00, 0x00, 0x00, 0x00, 0x00, 0x00, 0x00, 0x00, 0x00,
  0x00, 0x00, 0x00, 0x00, 0x00, 0x00, 0x00, 0x00, 0x00, 0x00, 0x00, 0x00,
  0x00, 0x00, 0x00, 0x00, 0x00, 0x00, 0x00, 0x00, 0x00, 0x00, 0x00, 0x00,
  0x00, 0x00, 0x00, 0x00, 0x00, 0x00, 0x00, 0x00, 0x00, 0x00, 0x00, 0x00,
  0x00, 0x00, 0x00, 0x00, 0x00, 0x00, 0x00, 0x00, 0x00, 0x00, 0x00, 0x00,
  0x00, 0x00, 0x00, 0x00, 0x00, 0x00, 0x00, 0x00, 0x00, 0x00, 0x00, 0x00,
  0x00, 0x00, 0x00, 0x00, 0x00, 0x00, 0x00, 0x00, 0x00, 0x00, 0x00, 0x00,
  0x00, 0x00, 0x00, 0x00, 0x00, 0x00, 0x00, 0x00, 0x00, 0x00, 0x00, 0x00,
  0x00, 0x00, 0x00, 0x00, 0x00, 0x00, 0x00, 0x00, 0x00, 0x00, 0x00, 0x00,
  0x00, 0x00, 0x00, 0x00, 0x00, 0x00, 0x00, 0x00, 0x00, 0x00, 0x00, 0x00,
  0x00, 0x00, 0x00, 0x00, 0x00, 0x00, 0x00, 0x00, 0x00, 0x00, 0x00, 0x00,
  0x00, 0x00, 0x00, 0x00, 0x00, 0x00, 0x00, 0x00, 0x00, 0x00, 0x00, 0x00,
  0x00, 0x00, 0x00, 0x00, 0x00, 0x00, 0x00, 0x00, 0x00, 0x00, 0x00, 0x00,
  0x00, 0x00, 0x00, 0x00, 0x00, 0x00, 0x00, 0x00, 0x00, 0x00, 0x00, 0x00,
  0x00, 0x00, 0x00, 0x00, 0x00, 0x00, 0x00, 0x00, 0x00, 0x00, 0x00, 0x00,
  0x00, 0x00, 0x00, 0x00, 0x00, 0x00, 0x00, 0x00, 0x00, 0x00, 0x00, 0x00,
  0x00, 0x00, 0x00, 0x00, 0x00, 0x00, 0x00, 0x00, 0x00, 0x00, 0x00, 0x00,
  0x00, 0x00, 0x00, 0x00, 0x00, 0x00, 0x00, 0x00, 0x00, 0x00, 0x00, 0x00,
  0x00, 0x00, 0x00, 0x00, 0x00, 0x00, 0x00, 0x00, 0x00, 0x00, 0x00, 0x00,
  0x00, 0x00, 0x00, 0x00, 0x00, 0x00, 0x00, 0x00, 0x00, 0x00, 0x00, 0x00,
  0x00, 0x00, 0x00, 0x00, 0x00, 0x00, 0x00, 0x00, 0x00, 0x00, 0x00, 0x00,
  0x00, 0x00, 0x00, 0x00, 0xc1, 0xcf, 0x2e, 0x54, 0x5c, 0xfa, 0x02, 0x2a,
  0xf8, 0x42, 0xf9, 0x10, 0x4c, 0x31, 0xfb, 0x01, 0xb1, 0xd4, 0x05, 0x5c,
  0x13, 0x95, 0x07, 0xdd, 0x87, 0xc0, 0xae, 0x28, 0x7a, 0x51, 0x98, 0xf5,
  0x42, 0x28, 0x01, 0x06, 0x25, 0xc2, 0xc1, 0x92, 0xb9, 0x2b, 0xac, 0x23,
  0xcf, 0x2c, 0x0c, 0x81, 0x94, 0x0b, 0x5e, 0xe9, 0x33, 0xd9, 0xa0, 0x29,
  0x0b, 0xec, 0xf7, 0x15, 0xc7, 0x92, 0x12, 0x49, 0x00, 0x00, 0x00, 0x00,
  0x00, 0x00, 0x00, 0x00, 0x00, 0x00, 0x00, 0x00, 0x00, 0x00, 0x00, 0x00,
  0x00, 0x00, 0x00, 0x00, 0x00, 0x00, 0x00, 0x00, 0x00, 0x00, 0x00, 0x00,
  0x00, 0x00, 0x00, 0x00, 0x00, 0x00, 0x00, 0x00, 0x00, 0x00, 0x00, 0x00,
  0x00, 0x00, 0x00, 0x00, 0x00, 0x00, 0x00, 0x00, 0x00, 0x00, 0x00, 0x00,
  0x00, 0x00, 0x00, 0x00, 0x00, 0x00, 0x00, 0x00, 0x00, 0x00, 0x00, 0x00,
  0x4c, 0xb7, 0x31, 0xee, 0xc8, 0x1f, 0xc0, 0x21, 0x41, 0xf6, 0x49, 0xd6,
  0xb8, 0x46, 0x4c, 0x08, 0xf5, 0x0b, 0x27, 0x81, 0xb9, 0x51, 0x93, 0x24,
  0x39, 0x48, 0x50, 0x06, 0xcf, 0xb7, 0x4e, 0xe1, 0xee, 0x2e, 0xf5, 0x8a,
  0x96, 0xd8, 0x2a, 0x19, 0x07, 0xd9, 0x02, 0xd1, 0x39, 0xdf, 0xf6, 0x47,
  0x16, 0x46, 0x1a, 0x1f, 0xd4, 0x28, 0x3e, 0xf9, 0xd4, 0x46, 0xfd, 0x2d,
  0x28, 0x52, 0xb2, 0xc6, 0x00, 0x00, 0x00, 0x00, 0x00, 0x00, 0x00, 0x00,
  0x00, 0x00, 0x00, 0x00, 0x00, 0x00, 0x00, 0x00, 0x00, 0x00, 0x00, 0x00,
  0x00, 0x00, 0x00, 0x00, 0x00, 0x00, 0x00, 0x00, 0x00, 0x00, 0x00, 0x00,
  0x00, 0x00, 0x00, 0x00, 0x00, 0x00, 0x00, 0x00, 0x00, 0x00, 0x00, 0x00,
  0x00, 0x00, 0x00, 0x00, 0x00, 0x00, 0x00, 0x00, 0x00, 0x00, 0x00, 0x00,
  0x00, 0x00, 0x00, 0x00, 0x00, 0x00, 0x00, 0x00, 0x00, 0x00, 0x00, 0x00,
  0x00, 0x00, 0x00, 0x00, 0x00, 0x00, 0x00, 0x00, 0x00, 0x00, 0x00, 0x00,
  0x00, 0x00, 0x00, 0x00, 0x00, 0x00, 0x00, 0x00, 0x00, 0x00, 0x00, 0x00,
  0x00, 0x00, 0x00, 0x00, 0x00, 0x00, 0x00, 0x00, 0x00, 0x00, 0x00, 0x00,
  0x00, 0x00, 0x00, 0x00, 0x00, 0x00, 0x00, 0x00, 0x00, 0x00, 0x00, 0x00,
  0x00, 0x00, 0x00, 0x00, 0x00, 0x00, 0x00, 0x00, 0x00, 0x00, 0x00, 0x00,
  0x00, 0x00, 0x00, 0x00, 0x00, 0x00, 0x00, 0x00, 0x00, 0x00, 0x00, 0x00,
  0x00, 0x00, 0x00, 0x00, 0x00, 0x00, 0x00, 0x00, 0x00, 0x00, 0x00, 0x00,
  0x00, 0x00, 0x00, 0x00, 0x00, 0x00, 0x00, 0x00, 0x00, 0x00, 0x00, 0x00,
  0x00, 0x00, 0x00, 0x00, 0x00, 0x00, 0x00, 0x00, 0x00, 0x00, 0x00, 0x00,
  0x00, 0x00, 0x00, 0x00, 0x00, 0x00, 0x00, 0x00, 0x00, 0x00, 0x00, 0x00,
  0x00, 0x00, 0x00, 0x00, 0x00, 0x00, 0x00, 0x00, 0x00, 0x00, 0x00, 0x00,
  0x00, 0x00, 0x00, 0x00, 0x00, 0x00, 0x00, 0x00, 0x00, 0x00, 0x00, 0x00,
  0x00, 0x00, 0x00, 0x00, 0x00, 0x00, 0x00, 0x00, 0x00, 0x00, 0x00, 0x00,
  0x00, 0x00, 0x00, 0x00, 0x00, 0x00, 0x00, 0x00, 0x00, 0x00, 0x00, 0x00,
  0x00, 0x00, 0x00, 0x00, 0x00, 0x00, 0x00, 0x00, 0x00, 0x00, 0x00, 0x00,
  0x00, 0x00, 0x00, 0x00, 0x00, 0x00, 0x00, 0x00, 0x00, 0x00, 0x00, 0x00,
  0x00, 0x00, 0x00, 0x00, 0x00, 0x00, 0x00, 0x00, 0x00, 0x00, 0x00, 0x00,
  0x00, 0x00, 0x00, 0x00, 0x00, 0x00, 0x00, 0x00, 0x00, 0x00, 0x00, 0x00,
  0x00, 0x00, 0x00, 0x00, 0x00, 0x00, 0x00, 0x00, 0x00, 0x00, 0x00, 0x00,
  0x00, 0x00, 0x00, 0x00, 0x00, 0x00, 0x00, 0x00, 0x00, 0x00, 0x00, 0x00,
  0x00, 0x00, 0x00, 0x00, 0x00, 0x00, 0x00, 0x00, 0x00, 0x00, 0x00, 0x00,
  0x00, 0x00, 0x00, 0x00, 0x00, 0x00, 0x00, 0x00, 0x00, 0x00, 0x00, 0x00,
  0x00, 0x00, 0x00, 0x00, 0x00, 0x00, 0x00, 0x00, 0x00, 0x00, 0x00, 0x00,
  0x00, 0x00, 0x00, 0x00, 0x00, 0x00, 0x00, 0x00, 0x00, 0x00, 0x00, 0x00,
  0x00, 0x00, 0x00, 0x00, 0x00, 0x00, 0x00, 0x00, 0x00, 0x00, 0x00, 0x00,
  0x00, 0x00, 0x00, 0x00, 0x00, 0x00, 0x00, 0x00, 0x00, 0x00, 0x00, 0x00,
  0x00, 0x00, 0x00, 0x00, 0x00, 0x00, 0x00, 0x00, 0x00, 0x00, 0x00, 0x00,
  0x00, 0x00, 0x00, 0x00, 0x00, 0x00, 0x00, 0x00, 0x00, 0x00, 0x00, 0x00,
  0x00, 0x00, 0x00, 0x00, 0x00, 0x00, 0x00, 0x00, 0x00, 0x00, 0x00, 0x00,
  0x00, 0x00, 0x00, 0x00, 0x00, 0x00, 0x00, 0x00, 0x00, 0x00, 0x00, 0x00,
  0x00, 0x00, 0x00, 0x00, 0x00, 0x00, 0x00, 0x00, 0x00, 0x00, 0x00, 0x00,
  0x00, 0x00, 0x00, 0x00, 0x00, 0x00, 0x00, 0x00, 0x00, 0x00, 0x00, 0x00,
  0x00, 0x00, 0x00, 0x00, 0x00, 0x00, 0x00, 0x00, 0x00, 0x00, 0x00, 0x00,
  0x00, 0x00, 0x00, 0x00, 0x00, 0x00, 0x00, 0x00, 0x00, 0x00, 0x00, 0x00,
  0x00, 0x00, 0x00, 0x00, 0x00, 0x00, 0x00, 0x00, 0x00, 0x00, 0x00, 0x00,
  0x00, 0x00, 0x00, 0x00, 0x00, 0x00, 0x00, 0x00, 0x00, 0x00, 0x00, 0x00,
  0x00, 0x00, 0x00, 0x00, 0x00, 0x00, 0x00, 0x00, 0x00, 0x00, 0x00, 0x00,
  0x00, 0x00, 0x00, 0x00, 0x00, 0x00, 0x00, 0x00, 0x00, 0x00, 0x00, 0x00,
  0x00, 0x00, 0x00, 0x00, 0x00, 0x00, 0x00, 0x00, 0x00, 0x00, 0x00, 0x00,
  0x00, 0x00, 0x00, 0x00, 0x00, 0x00, 0x00, 0x00, 0x00, 0x00, 0x00, 0x00,
  0x00, 0x00, 0x00, 0x00, 0x00, 0x00, 0x00, 0x00, 0x00, 0x00, 0x00, 0x00,
  0x00, 0x00, 0x00, 0x00, 0x00, 0x00, 0x00, 0x00, 0x00, 0x00, 0x00, 0x00,
  0x00, 0x00, 0x00, 0x00, 0x00, 0x00, 0x00, 0x00, 0x00, 0x00, 0x00, 0x00,
  0x00, 0x00, 0x00, 0x00, 0x00, 0x00, 0x00, 0x00, 0x00, 0x00, 0x00, 0x00,
  0x00, 0x00, 0x00, 0x00, 0x00, 0x00, 0x00, 0x00, 0x00, 0x00, 0x00, 0x00,
  0x00, 0x00, 0x00, 0x00, 0x00, 0x00, 0x00, 0x00, 0x00, 0x00, 0x00, 0x00,
  0x00, 0x00, 0x00, 0x00, 0x00, 0x00, 0x00, 0x00, 0x00, 0x00, 0x00, 0x00,
  0x00, 0x00, 0x00, 0x00, 0x00, 0x00, 0x00, 0x00, 0x00, 0x00, 0x00, 0x00,
  0x00, 0x00, 0x00, 0x00, 0x00, 0x00, 0x00, 0x00, 0x00, 0x00, 0x00, 0x00,
  0x00, 0x00, 0x00, 0x00, 0x00, 0x00, 0x00, 0x00, 0x00, 0x00, 0x00, 0x00,
  0x00, 0x00, 0x00, 0x00, 0x00, 0x00, 0x00, 0x00, 0x00, 0x00, 0x00, 0x00,
  0x00, 0x00, 0x00, 0x00, 0x00, 0x00, 0x00, 0x00, 0x00, 0x00, 0x00, 0x00,
  0x00, 0x00, 0x00, 0x00, 0x00, 0x00, 0x00, 0x00, 0x00, 0x00, 0x00, 0x00,
  0x00, 0x00, 0x00, 0x00, 0x00, 0x00, 0x00, 0x00, 0x00, 0x00, 0x00, 0x00,
  0x00, 0x00, 0x00, 0x00, 0x00, 0x00, 0x00, 0x00, 0x00, 0x00, 0x00, 0x00,
  0x00, 0x00, 0x00, 0x00, 0x00, 0x00, 0x00, 0x00, 0x00, 0x00, 0x00, 0x00,
  0x00, 0x00, 0x00, 0x00, 0x00, 0x00, 0x00, 0x00, 0x00, 0x00, 0x00, 0x00,
  0x00, 0x00, 0x00, 0x00, 0x00, 0x00, 0x00, 0x00, 0x00, 0x00, 0x00, 0x00,
  0x00, 0x00, 0x00, 0x00, 0x00, 0x00, 0x00, 0x00, 0x00, 0x00, 0x00, 0x00,
  0x00, 0x00, 0x00, 0x00, 0x00, 0x00, 0x00, 0x00, 0x00, 0x00, 0x00, 0x00,
  0x00, 0x00, 0x00, 0x00, 0x00, 0x00, 0x00, 0x00, 0x00, 0x00, 0x00, 0x00,
  0x00, 0x00, 0x00, 0x00, 0x00, 0x00, 0x00, 0x00, 0x00, 0x00, 0x00, 0x00,
  0x00, 0x00, 0x00, 0x00, 0x00, 0x00, 0x00, 0x00, 0x00, 0x00, 0x00, 0x00,
  0x00, 0x00, 0x00, 0x00, 0x00, 0x00, 0x00, 0x00, 0x00, 0x00, 0x00, 0x00,
  0x00, 0x00, 0x00, 0x00, 0x00, 0x00, 0x00, 0x00, 0x00, 0x00, 0x00, 0x00,
  0x00, 0x00, 0x00, 0x00, 0x00, 0x00, 0x00, 0x00, 0x00, 0x00, 0x00, 0x00,
  0x00, 0x00, 0x00, 0x00, 0x00, 0x00, 0x00, 0x00, 0x00, 0x00, 0x00, 0x00,
  0x00, 0x00, 0x00, 0x00, 0x00, 0x00, 0x00, 0x00, 0x00, 0x00, 0x00, 0x00,
  0x00, 0x00, 0x00, 0x00, 0x00, 0x00, 0x00, 0x00, 0x00, 0x00, 0x00, 0x00,
  0x00, 0x00, 0x00, 0x00, 0x00, 0x00, 0x00, 0x00, 0x00, 0x00, 0x00, 0x00,
  0x00, 0x00, 0x00, 0x00, 0x00, 0x00, 0x00, 0x00, 0x00, 0x00, 0x00, 0x00,
  0x00, 0x00, 0x00, 0x00, 0x00, 0x00, 0x00, 0x00, 0x00, 0x00, 0x00, 0x00,
  0x00, 0x00, 0x00, 0x00, 0x00, 0x00, 0x00, 0x00, 0x00, 0x00, 0x00, 0x00,
  0x00, 0x00, 0x00, 0x00, 0x00, 0x00, 0x00, 0x00, 0x00, 0x00, 0x00, 0x00,
  0x00, 0x00, 0x00, 0x00, 0xd1, 0xba, 0x48, 0x06, 0x6f, 0x5d, 0x62, 0x2b,
  0xae, 0x67, 0xda, 0x06, 0x41, 0x2f, 0xde, 0x0f, 0xcb, 0xdf, 0xcc, 0x3e,
  0x0c, 0xc2, 0xf7, 0x8f, 0xbe, 0xc4, 0xe9, 0x53, 0x11, 0x1d, 0xa5, 0x36,
  0x6b, 0xeb, 0xc2, 0x21, 0x32, 0x05, 0xa7, 0xbf, 0x92, 0x16, 0xf0, 0x2f,
  0xbb, 0x4b, 0x00, 0x81, 0xaf, 0xd0, 0x35, 0xf2, 0x08, 0xae, 0xb2, 0x30,
  0x26, 0xf9, 0xa9, 0x27, 0x99, 0xc0, 0x2a, 0x16, 0x00, 0x00, 0x00, 0x00,
  0x00, 0x00, 0x00, 0x00, 0x00, 0x00, 0x00, 0x00, 0x00, 0x00, 0x00, 0x00,
  0x00, 0x00, 0x00, 0x00, 0x00, 0x00, 0x00, 0x00, 0x00, 0x00, 0x00, 0x00,
  0x00, 0x00, 0x00, 0x00, 0x00, 0x00, 0x00, 0x00, 0x00, 0x00, 0x00, 0x00,
  0x00, 0x00, 0x00, 0x00, 0x00, 0x00, 0x00, 0x00, 0x00, 0x00, 0x00, 0x00,
  0x00, 0x00, 0x00, 0x00, 0x00, 0x00, 0x00, 0x00, 0x00, 0x00, 0x00, 0x00,
  0x00, 0x00, 0x00, 0x00, 0x00, 0x00, 0x00, 0x00, 0x00, 0x00, 0x00, 0x00,
  0x00, 0x00, 0x00, 0x00, 0x00, 0x00, 0x00, 0x00, 0x00, 0x00, 0x00, 0x00,
  0x00, 0x00, 0x00, 0x00, 0x00, 0x00, 0x00, 0x00, 0x00, 0x00, 0x00, 0x00,
  0x00, 0x00, 0x00, 0x00, 0x00, 0x00, 0x00, 0x00, 0x00, 0x00, 0x00, 0x00,
  0x00, 0x00, 0x00, 0x00, 0x00, 0x00, 0x00, 0x00, 0x00, 0x00, 0x00, 0x00,
  0x00, 0x00, 0x00, 0x00, 0x00, 0x00, 0x00, 0x00, 0x00, 0x00, 0x00, 0x00,
  0x00, 0x00, 0x00, 0x00, 0x00, 0x00, 0x00, 0x00, 0x00, 0x00, 0x00, 0x00,
  0x00, 0x00, 0x00, 0x00, 0x00, 0x00, 0x00, 0x00, 0x00, 0x00, 0x00, 0x00,
  0x00, 0x00, 0x00, 0x00, 0x00, 0x00, 0x00, 0x00, 0x00, 0x00, 0x00, 0x00,
  0x00, 0x00, 0x00, 0x00, 0x00, 0x00, 0x00, 0x00, 0x00, 0x00, 0x00, 0x00,
  0x00, 0x00, 0x00, 0x00, 0x00, 0x00, 0x00, 0x00, 0x21, 0xe8, 0xe4, 0xc0,
  0xaf, 0xdb, 0xd6, 0x31, 0x38, 0xd8, 0x62, 0xf0, 0xa5, 0xe9, 0x73, 0x6b,
  0xff, 0x5e, 0x51, 0x81, 0xd9, 0x44, 0x92, 0x67, 0x31, 0x3e, 0x15, 0x39,
  0xcf, 0xef, 0x50, 0xcf, 0xf7, 0xfa, 0x55, 0xd4, 0xa1, 0xcf, 0x49, 0x22,
  0x31, 0xfe, 0x64, 0xd0, 0x62, 0xcd, 0xa4, 0x36, 0x48, 0x43, 0xfd, 0x3d,
  0xde, 0x27, 0x2b, 0xd3, 0xbe, 0x48, 0x0b, 0xa8, 0x5a, 0x2c, 0x9b, 0xf5,
  0x41, 0xae, 0x31, 0xe9, 0xd0, 0x3f, 0xcb, 0x35, 0x2f, 0xdc, 0x2f, 0x89,
  0xd3, 0xf7, 0x15, 0xe7, 0x06, 0x0f, 0x2e, 0x98, 0xbf, 0x2a, 0xa1, 0x0f,
  0x59, 0x3d, 0x55, 0xf1, 0x81, 0xda, 0x53, 0xff, 0x07, 0x48, 0xe9, 0xa0,
  0x86, 0x04, 0x13, 0xf7, 0xdc, 0xda, 0x1b, 0xce, 0x36, 0xec, 0x15, 0x3a,
  0x1f, 0x16, 0xe2, 0x47, 0x86, 0x5e, 0x32, 0xdb, 0xd8, 0x16, 0x01, 0x0a,
  0x3e, 0x3b, 0xcc, 0xf0, 0x00, 0x00, 0x00, 0x00, 0x00, 0x00, 0x00, 0x00,
  0x00, 0x00, 0x00, 0x00, 0x00, 0x00, 0x00, 0x00, 0x00, 0x00, 0x00, 0x00,
  0x00, 0x00, 0x00, 0x00, 0x00, 0x00, 0x00, 0x00, 0x00, 0x00, 0x00, 0x00,
  0x00, 0x00, 0x00, 0x00, 0x00, 0x00, 0x00, 0x00, 0x00, 0x00, 0x00, 0x00,
  0x00, 0x00, 0x00, 0x00, 0x00, 0x00, 0x00, 0x00, 0x00, 0x00, 0x00, 0x00,
  0x00, 0x00, 0x00, 0x00, 0x00, 0x00, 0x00, 0x00, 0x00, 0x00, 0x00, 0x00,
  0x00, 0x00, 0x00, 0x00, 0x00, 0x00, 0x00, 0x00, 0x00, 0x00, 0x00, 0x00,
  0x00, 0x00, 0x00, 0x00, 0x00, 0x00, 0x00, 0x00, 0x00, 0x00, 0x00, 0x00,
  0x00, 0x00, 0x00, 0x00, 0x00, 0x00, 0x00, 0x00, 0x00, 0x00, 0x00, 0x00,
  0x00, 0x00, 0x00, 0x00, 0x00, 0x00, 0x00, 0x00, 0x00, 0x00, 0x00, 0x00,
  0x00, 0x00, 0x00, 0x00, 0x00, 0x00, 0x00, 0x00, 0x00, 0x00, 0x00, 0x00,
  0xc3, 0xcd, 0x4c, 0x2f, 0x12, 0x00, 0x24, 0x21, 0xbd, 0x2a, 0xe1, 0x36,
  0x02, 0x31, 0xd6, 0xf3, 0xc9, 0xe3, 0xe5, 0x39, 0x20, 0xb3, 0x1c, 0xe8,
  0xd8, 0xeb, 0xc5, 0x31, 0x64, 0x50, 0xc9, 0xfe, 0x2d, 0x37, 0xe4, 0xed,
  0x37, 0xf7, 0x04, 0xba, 0xc7, 0x2c, 0xd0, 0x0f, 0xd7, 0x56, 0x3c, 0xc7,
  0x81, 0x04, 0x44, 0xe2, 0x29, 0xbd, 0xd1, 0x24, 0x2c, 0x07, 0xd9, 0x2a,
  0xa1, 0xdf, 0x0b, 0x3b, 0x11, 0x2a, 0xae, 0xee, 0xc7, 0x91, 0xc1, 0x5e,
  0xc2, 0xf3, 0x2f, 0x01, 0xb9, 0xcb, 0x41, 0x6a, 0xfe, 0x46, 0x32, 0xe6,
  0xed, 0x1d, 0xb0, 0x35, 0x0a, 0x23, 0x48, 0x37, 0xfb, 0xfc, 0x4d, 0x83,
  0xfa, 0x81, 0x6d, 0xdd, 0x1c, 0xbc, 0x5d, 0x42, 0xf1, 0x1f, 0x1c, 0x13,
  0x0e, 0xd2, 0xd9, 0xfb, 0x0c, 0x1a, 0x05, 0x33, 0xbc, 0x4f, 0xfb, 0xe9,
  0xd9, 0x49, 0x2e, 0xa0, 0x53, 0x39, 0xe4, 0x35, 0x00, 0x00, 0x00, 0x00,
  0x00, 0x00, 0x00, 0x00, 0x00, 0x00, 0x00, 0x00, 0x00, 0x00, 0x00, 0x00,
  0x00, 0x00, 0x00, 0x00, 0x00, 0x00, 0x00, 0x00, 0x00, 0x00, 0x00, 0x00,
  0x00, 0x00, 0x00, 0x00, 0x00, 0x00, 0x00, 0x00, 0x00, 0x00, 0x00, 0x00,
  0x00, 0x00, 0x00, 0x00, 0x00, 0x00, 0x00, 0x00, 0x00, 0x00, 0x00, 0x00,
  0x00, 0x00, 0x00, 0x00, 0x00, 0x00, 0x00, 0x00, 0x00, 0x00, 0x00, 0x00,
  0x00, 0x00, 0x00, 0x00, 0x00, 0x00, 0x00, 0x00, 0x00, 0x00, 0x00, 0x00,
  0x00, 0x00, 0x00, 0x00, 0x00, 0x00, 0x00, 0x00, 0x00, 0x00, 0x00, 0x00,
  0x00, 0x00, 0x00, 0x00, 0x00, 0x00, 0x00, 0x00, 0x00, 0x00, 0x00, 0x00,
  0x00, 0x00, 0x00, 0x00, 0x00, 0x00, 0x00, 0x00, 0x00, 0x00, 0x00, 0x00,
  0x00, 0x00, 0x00, 0x00, 0x00, 0x00, 0x00, 0x00, 0x00, 0x00, 0x00, 0x00,
  0x00, 0x00, 0x00, 0x00, 0x00, 0x00, 0x00, 0x00, 0x00, 0x00, 0x00, 0x00,
  0x00, 0x00, 0x00, 0x00, 0x00, 0x00, 0x00, 0x00, 0x00, 0x00, 0x00, 0x00,
  0x00, 0x00, 0x00, 0x00, 0x00, 0x00, 0x00, 0x00, 0x00, 0x00, 0x00, 0x00,
  0x00, 0x00, 0x00, 0x00, 0x00, 0x00, 0x00, 0x00, 0x00, 0x00, 0x00, 0x00,
  0x00, 0x00, 0x00, 0x00, 0x00, 0x00, 0x00, 0x00, 0x00, 0x00, 0x00, 0x00,
  0x00, 0x00, 0x00, 0x00, 0x00, 0x00, 0x00, 0x00, 0x65, 0xc4, 0xc9, 0xae,
  0x9e, 0xce, 0xb1, 0x34, 0x33, 0x05, 0x78, 0xf9, 0xb1, 0xf3, 0x55, 0x43,
  0xb1, 0x28, 0x5f, 0x8f, 0xc4, 0x7f, 0x94, 0x6f, 0x42, 0x51, 0x2d, 0xf6,
  0x04, 0xac, 0x38, 0xb5, 0x15, 0x32, 0x57, 0x9c, 0xac, 0xc1, 0x2e, 0x19,
  0xf5, 0xa9, 0x4e, 0xd1, 0x74, 0xa8, 0xe7, 0x2a, 0x66, 0x54, 0x18, 0x26,
  0xe3, 0x3f, 0x33, 0xd8, 0x00, 0x6c, 0x2e, 0x1c, 0x3d, 0x3b, 0xa1, 0xff,
  0x1c, 0xd7, 0xe8, 0xd8, 0xd0, 0xf9, 0xb3, 0x37, 0x21, 0x20, 0x54, 0xcc,
  0xa6, 0xc5, 0x59, 0x57, 0xc3, 0x4c, 0x38, 0x96, 0x8d, 0x5c, 0xad, 0x5c,
  0x6e, 0x52, 0x54, 0x1c, 0xee, 0xad, 0x40, 0x92, 0x05, 0xc6, 0x36, 0x81,
  0xd0, 0xb2, 0x42, 0x45, 0x0b, 0xf2, 0x55, 0x04, 0x33, 0xf2, 0xae, 0x3d,
  0x37, 0x3e, 0x34, 0x50, 0xbc, 0x26, 0x1c, 0xe4, 0xba, 0x56, 0x56, 0x92,
  0x2d, 0x64, 0x98, 0x28, 0x00, 0x00, 0x00, 0x00, 0x00, 0x00, 0x00, 0x00,
  0x00, 0x00, 0x00, 0x00, 0x00, 0x00, 0x00, 0x00, 0x00, 0x00, 0x00, 0x00,
  0x00, 0x00, 0x00, 0x00, 0x00, 0x00, 0x00, 0x00, 0x00, 0x00, 0x00, 0x00,
  0x00, 0x00, 0x00, 0x00, 0x00, 0x00, 0x00, 0x00, 0x00, 0x00, 0x00, 0x00,
  0x00, 0x00, 0x00, 0x00, 0x00, 0x00, 0x00, 0x00, 0x00, 0x00, 0x00, 0x00,
  0x00, 0x00, 0x00, 0x00, 0x00, 0x00, 0x00, 0x00, 0x00, 0x00, 0x00, 0x00,
  0x00, 0x00, 0x00, 0x00, 0x00, 0x00, 0x00, 0x00, 0x00, 0x00, 0x00, 0x00,
  0x00, 0x00, 0x00, 0x00, 0x00, 0x00, 0x00, 0x00, 0x00, 0x00, 0x00, 0x00,
  0x00, 0x00, 0x00, 0x00, 0x00, 0x00, 0x00, 0x00, 0x00, 0x00, 0x00, 0x00,
  0x00, 0x00, 0x00, 0x00, 0x00, 0x00, 0x00, 0x00, 0x00, 0x00, 0x00, 0x00,
  0x00, 0x00, 0x00, 0x00, 0x00, 0x00, 0x00, 0x00, 0x00, 0x00, 0x00, 0x00,
  0xc2, 0xd1, 0x48, 0x2e, 0x3d, 0x21, 0x1a, 0x29, 0xb8, 0x4b, 0x08, 0x23,
  0x12, 0x35, 0x23, 0x1b, 0xb9, 0xed, 0xca, 0x57, 0x36, 0xbe, 0x14, 0xb6,
  0xb6, 0xaf, 0xc0, 0x12, 0x31, 0x41, 0xef, 0xeb, 0x48, 0x08, 0xff, 0x05,
  0x3b, 0x00, 0xe5, 0xbd, 0x9a, 0x4d, 0xdf, 0x0e, 0xd8, 0x47, 0xf1, 0xe4,
  0x81, 0x0f, 0x2f, 0xe4, 0x02, 0xf5, 0x9a, 0x2d, 0x46, 0x0d, 0xf0, 0x0b,
  0xd2, 0xaa, 0x44, 0x32, 0x18, 0x05, 0xde, 0xbb, 0xe7, 0x8b, 0xae, 0x69,
  0xd8, 0xe1, 0x3e, 0xbf, 0xb3, 0xd3, 0xfd, 0x7d, 0xf8, 0x0a, 0x56, 0xbe,
  0xc0, 0x55, 0xb7, 0x43, 0x26, 0x4a, 0x60, 0x59, 0x1a, 0xd1, 0x4c, 0xa5,
  0xff, 0xaf, 0x35, 0x98, 0xf7, 0xdb, 0x64, 0x52, 0x18, 0xf8, 0x55, 0xfd,
  0x24, 0xe4, 0xa7, 0x18, 0x34, 0x41, 0x3e, 0x36, 0xeb, 0x0a, 0x04, 0xf4,
  0xc2, 0x6f, 0x0f, 0x81, 0x38, 0x3a, 0xf1, 0x29, 0x00, 0x00, 0x00, 0x00,
  0x00, 0x00, 0x00, 0x00, 0x00, 0x00, 0x00, 0x00, 0x00, 0x00, 0x00, 0x00,
  0x00, 0x00, 0x00, 0x00, 0x00, 0x00, 0x00, 0x00, 0x00, 0x00, 0x00, 0x00,
  0x00, 0x00, 0x00, 0x00, 0x00, 0x00, 0x00, 0x00, 0x00, 0x00, 0x00, 0x00,
  0x00, 0x00, 0x00, 0x00, 0x00, 0x00, 0x00, 0x00, 0x00, 0x00, 0x00, 0x00,
  0x00, 0x00, 0x00, 0x00, 0x00, 0x00, 0x00, 0x00, 0x00, 0x00, 0x00, 0x00,
  0x0f, 0x17, 0xb7, 0xbe, 0xc7, 0xbb, 0xd6, 0x32, 0xe2, 0x04, 0x52, 0xce,
  0xf8, 0xdd, 0x39, 0x6c, 0x07, 0x45, 0x15, 0xd9, 0xc3, 0x34, 0xe2, 0xfc,
  0xfd, 0x2f, 0x1d, 0x46, 0x1c, 0xea, 0x13, 0xd6, 0xf6, 0xb7, 0x5f, 0xec,
  0xbf, 0xce, 0x60, 0x21, 0x10, 0xe3, 0x45, 0xf9, 0x1c, 0xdc, 0xb4, 0x13,
  0x01, 0x26, 0x13, 0x32, 0xef, 0x44, 0x0f, 0xcd, 0xea, 0x4c, 0x3f, 0x81,
  0x3d, 0x34, 0xc7, 0x2f, 0xf2, 0xbd, 0xdb, 0xed, 0xd4, 0x81, 0xca, 0x5c,
  0xf6, 0x0b, 0x3b, 0xcd, 0xbf, 0xb6, 0x65, 0x7f, 0xe3, 0x46, 0x56, 0xa1,
  0xba, 0x50, 0x9b, 0x49, 0x3b, 0x48, 0x5f, 0x43, 0x04, 0x03, 0x5a, 0x8c,
  0x02, 0x9d, 0x5b, 0xac, 0xe3, 0xe9, 0x33, 0x2e, 0xe9, 0xf1, 0x63, 0x26,
  0x73, 0xd0, 0xe0, 0x27, 0xef, 0x02, 0x42, 0x44, 0xdf, 0x23, 0x17, 0xc8,
  0xd6, 0x65, 0xf4, 0x96, 0x42, 0x63, 0xe7, 0x4e, 0x00, 0x00, 0x00, 0x00,
  0x00, 0x00, 0x00, 0x00, 0x00, 0x00, 0x00, 0x00, 0x00, 0x00, 0x00, 0x00,
  0x00, 0x00, 0x00, 0x00, 0x00, 0x00, 0x00, 0x00, 0x00, 0x00, 0x00, 0x00,
  0x00, 0x00, 0x00, 0x00, 0x00, 0x00, 0x00, 0x00, 0x00, 0x00, 0x00, 0x00,
  0x00, 0x00, 0x00, 0x00, 0x00, 0x00, 0x00, 0x00, 0x00, 0x00, 0x00, 0x00,
  0x00, 0x00, 0x00, 0x00, 0x00, 0x00, 0x00, 0x00, 0x00, 0x00, 0x00, 0x00,
  0xb0, 0xb7, 0x4b, 0x47, 0x47, 0x3e, 0x69, 0xf2, 0xdd, 0x4d, 0x00, 0x02,
  0x38, 0x16, 0x05, 0xf3, 0xdc, 0xdc, 0xc1, 0x28, 0x08, 0xab, 0x1a, 0x8c,
  0xc5, 0x9d, 0x81, 0x2e, 0x7b, 0x4c, 0xb8, 0x3b, 0x6d, 0x34, 0xe9, 0x15,
  0x30, 0xfd, 0xc9, 0xba, 0x96, 0x6c, 0xc4, 0xff, 0xbb, 0x64, 0x21, 0xa6,
  0x9f, 0xfa, 0x3f, 0xef, 0x17, 0xf2, 0xc3, 0x16, 0x30, 0x3b, 0xbf, 0xeb,
  0x9c, 0xaf, 0x2a, 0x59, 0x16, 0x39, 0xdd, 0xf4, 0x19, 0x81, 0xc0, 0x4b,
  0xfa, 0xdc, 0x2c, 0x18, 0x0e, 0xb4, 0x44, 0x53, 0xde, 0x0f, 0x41, 0x03,
  0xbf, 0xfa, 0xe4, 0x46, 0x25, 0xf9, 0xfb, 0x54, 0x1f, 0x03, 0x3c, 0x84,
  0xda, 0x86, 0x63, 0xca, 0x36, 0xe0, 0x2b, 0x4b, 0x3e, 0x0d, 0x3a, 0x2e,
  0xfc, 0xe6, 0xa7, 0x0e, 0xe6, 0x32, 0x06, 0xf2, 0x22, 0x0e, 0x1f, 0xe6,
  0xce, 0x23, 0x43, 0x8f, 0x4a, 0x36, 0x01, 0xed, 0x54, 0xae, 0x19, 0xe2,
  0xae, 0x09, 0xe1, 0x27, 0x1d, 0xf6, 0x29, 0x84, 0xdd, 0xf3, 0x4a, 0x38,
  0xe7, 0x46, 0x47, 0xc5, 0xb5, 0x57, 0x81, 0x3a, 0x5c, 0x31, 0x1c, 0xfd,
  0xe6, 0xa3, 0x6e, 0xe3, 0xe4, 0x3d, 0x2e, 0x87, 0xa0, 0xf1, 0x59, 0x26,
  0x08, 0xe8, 0x31, 0xcb, 0x13, 0xba, 0xbf, 0x4e, 0x48, 0x2b, 0x0f, 0x50,
  0xbd, 0x41, 0x27, 0xe2, 0xdc, 0x4e, 0x17, 0x20, 0x31, 0x1f, 0x8c, 0x08,
  0x8d, 0x8a, 0x4c, 0x56, 0x32, 0x25, 0x4b, 0xee, 0xe2, 0x45, 0x38, 0x6c,
  0xff, 0x40, 0x05, 0x13, 0x8f, 0xe3, 0xd4, 0x5e, 0x3b, 0xc0, 0x0c, 0x99,
  0xb8, 0x95, 0x81, 0x45, 0x52, 0x46, 0xac, 0x10, 0x73, 0xef, 0x14, 0x39,
  0x44, 0xcb, 0xe4, 0xb4, 0xb0, 0x08, 0xc6, 0x66, 0x8f, 0x05, 0x13, 0x8e,
  0xb3, 0x07, 0x3f, 0x1c, 0x5b, 0xe7, 0x81, 0x2b, 0x3f, 0xed, 0xae, 0x02,
  0x8c, 0xc9, 0x37, 0x4e, 0x00, 0x00, 0x00, 0x00, 0x00, 0x00, 0x00, 0x00,
  0x00, 0x00, 0x00, 0x00, 0x00, 0x00, 0x00, 0x00, 0x00, 0x00, 0x00, 0x00,
  0x00, 0x00, 0x00, 0x00, 0x00, 0x00, 0x00, 0x00, 0x00, 0x00, 0x00, 0x00,
  0x00, 0x00, 0x00, 0x00, 0x00, 0x00, 0x00, 0x00, 0x00, 0x00, 0x00, 0x00,
  0x00, 0x00, 0x00, 0x00, 0x00, 0x00, 0x00, 0x00, 0x00, 0x00, 0x00, 0x00,
  0x00, 0x00, 0x00, 0x00, 0x00, 0x00, 0x00, 0x00, 0x5d, 0xaa, 0xd8, 0xb2,
  0xbc, 0x26, 0xa5, 0x4e, 0x06, 0x14, 0x2e, 0xd6, 0x9f, 0x19, 0x3f, 0x1f,
  0xb9, 0x3f, 0x4e, 0xb0, 0xb2, 0x40, 0x9c, 0x4b, 0x3a, 0x42, 0x47, 0x07,
  0xc6, 0x81, 0x51, 0xcb, 0xf0, 0x2e, 0x1c, 0xce, 0xa4, 0xb3, 0x38, 0x55,
  0x13, 0xb6, 0x1c, 0xf1, 0x54, 0xf2, 0x0a, 0x6c, 0x2e, 0x37, 0x0b, 0x2e,
  0xa3, 0x2b, 0x0e, 0xeb, 0xca, 0x4c, 0xf3, 0xfa, 0x0a, 0x30, 0xca, 0xc5,
  0x00, 0x00, 0x00, 0x00, 0x00, 0x00, 0x00, 0x00, 0x00, 0x00, 0x00, 0x00,
  0x00, 0x00, 0x00, 0x00, 0x00, 0x00, 0x00, 0x00, 0x00, 0x00, 0x00, 0x00,
  0x00, 0x00, 0x00, 0x00, 0x00, 0x00, 0x00, 0x00, 0x00, 0x00, 0x00, 0x00,
  0x00, 0x00, 0x00, 0x00, 0x00, 0x00, 0x00, 0x00, 0x00, 0x00, 0x00, 0x00,
  0x00, 0x00, 0x00, 0x00, 0x00, 0x00, 0x00, 0x00, 0x00, 0x00, 0x00, 0x00,
  0x00, 0x00, 0x00, 0x00, 0xc4, 0xcd, 0x6b, 0x53, 0x4a, 0x46, 0x44, 0x04,
  0xd5, 0x39, 0xd6, 0x14, 0x19, 0x42, 0xf1, 0xb5, 0xc2, 0xef, 0xdb, 0x53,
  0x32, 0xbf, 0x3c, 0x9b, 0xa2, 0xcb, 0xac, 0x2b, 0x3d, 0x7f, 0xa5, 0x2b,
  0x34, 0x40, 0xdb, 0x0a, 0x43, 0x00, 0xd5, 0x9b, 0xa3, 0x53, 0xbb, 0x25,
  0xc0, 0x3c, 0x53, 0xa3, 0xac, 0xd1, 0x2f, 0xf3, 0x38, 0xdb, 0xaf, 0x1f,
  0x2d, 0xe6, 0xc4, 0x15, 0x8d, 0xb0, 0x0b, 0x39, 0xe8, 0xad, 0x28, 0x3e,
  0x5d, 0x52, 0x15, 0xda, 0xb5, 0x4f, 0x1e, 0x40, 0xf4, 0x3b, 0x0e, 0xfc,
  0xc5, 0xf8, 0xb4, 0x6b, 0xf7, 0xaf, 0x0a, 0xce, 0xfc, 0x93, 0xbf, 0x3a,
  0x39, 0x77, 0x8e, 0xec, 0x3a, 0x1b, 0x0f, 0xf8, 0x26, 0x0a, 0xd7, 0x81,
  0xc7, 0x39, 0xb0, 0x35, 0xc7, 0x05, 0x1c, 0xdc, 0xa1, 0xd1, 0x2e, 0x07,
  0x2e, 0xbc, 0x97, 0x1e, 0x69, 0xde, 0xc3, 0xe7, 0xac, 0xd9, 0x18, 0x42,
  0xb3, 0xb4, 0x37, 0x32, 0x3f, 0x25, 0x33, 0x15, 0xbe, 0x44, 0x04, 0x23,
  0x31, 0x22, 0xfa, 0xfd, 0xb8, 0xfb, 0xe0, 0x37, 0x27, 0xae, 0x23, 0xc8,
  0xad, 0xb9, 0xa8, 0x2a, 0x38, 0x48, 0xaf, 0x05, 0x3e, 0x1c, 0xfe, 0x12,
  0x3b, 0xe9, 0xdc, 0xa5, 0xad, 0x3c, 0xcd, 0x26, 0xbb, 0x38, 0x21, 0xab,
  0x81, 0xfd, 0x3c, 0xfa, 0x25, 0xd1, 0xa5, 0x22, 0x26, 0x0c, 0xdd, 0xf3,
  0xb0, 0xc2, 0x27, 0x34, 0x00, 0x00, 0x00, 0x00, 0x00, 0x00, 0x00, 0x00,
  0x00, 0x00, 0x00, 0x00, 0x00, 0x00, 0x00, 0x00, 0x00, 0x00, 0x00, 0x00,
  0x00, 0x00, 0x00, 0x00, 0x00, 0x00, 0x00, 0x00, 0x00, 0x00, 0x00, 0x00,
  0x00, 0x00, 0x00, 0x00, 0x00, 0x00, 0x00, 0x00, 0x00, 0x00, 0x00, 0x00,
  0x00, 0x00, 0x00, 0x00, 0x00, 0x00, 0x00, 0x00, 0x00, 0x00, 0x00, 0x00,
  0x00, 0x00, 0x00, 0x00, 0x00, 0x00, 0x00, 0x00, 0x00, 0x00, 0x00, 0x00,
  0x00, 0x00, 0x00, 0x00, 0x00, 0x00, 0x00, 0x00, 0x00, 0x00, 0x00, 0x00,
  0x00, 0x00, 0x00, 0x00, 0x00, 0x00, 0x00, 0x00, 0x00, 0x00, 0x00, 0x00,
  0x00, 0x00, 0x00, 0x00, 0x00, 0x00, 0x00, 0x00, 0x00, 0x00, 0x00, 0x00,
  0x00, 0x00, 0x00, 0x00, 0x00, 0x00, 0x00, 0x00, 0x00, 0x00, 0x00, 0x00,
  0x00, 0x00, 0x00, 0x00, 0x00, 0x00, 0x00, 0x00, 0x00, 0x00, 0x00, 0x00,
  0x00, 0x00, 0x00, 0x00, 0x00, 0x00, 0x00, 0x00, 0x00, 0x00, 0x00, 0x00,
  0x00, 0x00, 0x00, 0x00, 0x00, 0x00, 0x00, 0x00, 0x00, 0x00, 0x00, 0x00,
  0x00, 0x00, 0x00, 0x00, 0x00, 0x00, 0x00, 0x00, 0x00, 0x00, 0x00, 0x00,
  0x00, 0x00, 0x00, 0x00, 0x00, 0x00, 0x00, 0x00, 0x00, 0x00, 0x00, 0x00,
  0x00, 0x00, 0x00, 0x00, 0x00, 0x00, 0x00, 0x00, 0x00, 0x00, 0x00, 0x00,
  0x00, 0x00, 0x00, 0x00, 0x00, 0x00, 0x00, 0x00, 0x00, 0x00, 0x00, 0x00,
  0x00, 0x00, 0x00, 0x00, 0x00, 0x00, 0x00, 0x00, 0x00, 0x00, 0x00, 0x00,
  0x00, 0x00, 0x00, 0x00, 0x00, 0x00, 0x00, 0x00, 0x00, 0x00, 0x00, 0x00,
  0x00, 0x00, 0x00, 0x00, 0x00, 0x00, 0x00, 0x00, 0x00, 0x00, 0x00, 0x00,
  0x00, 0x00, 0x00, 0x00, 0x00, 0x00, 0x00, 0x00, 0x00, 0x00, 0x00, 0x00,
  0x00, 0x00, 0x00, 0x00, 0x00, 0x00, 0x00, 0x00, 0x00, 0x00, 0x00, 0x00,
  0x00, 0x00, 0x00, 0x00, 0x00, 0x00, 0x00, 0x00, 0x00, 0x00, 0x00, 0x00,
  0x00, 0x00, 0x00, 0x00, 0x00, 0x00, 0x00, 0x00, 0x00, 0x00, 0x00, 0x00,
  0x00, 0x00, 0x00, 0x00, 0x00, 0x00, 0x00, 0x00, 0x00, 0x00, 0x00, 0x00,
  0x00, 0x00, 0x00, 0x00, 0x00, 0x00, 0x00, 0x00, 0x00, 0x00, 0x00, 0x00,
  0x00, 0x00, 0x00, 0x00, 0x00, 0x00, 0x00, 0x00, 0x00, 0x00, 0x00, 0x00,
  0xbf, 0xbe, 0x01, 0x23, 0x27, 0x1f, 0x15, 0x20, 0xd3, 0x33, 0xde, 0x49,
  0x0d, 0x33, 0xf2, 0x11, 0xb1, 0xdf, 0xe0, 0x43, 0x31, 0xa0, 0xf4, 0xdb,
  0xcf, 0xc2, 0xa6, 0x37, 0x4a, 0x2e, 0xa0, 0xe3, 0x12, 0x22, 0xf1, 0xe8,
  0x58, 0xea, 0xd3, 0xcf, 0xc3, 0x1f, 0xb0, 0x27, 0xd0, 0x0a, 0x36, 0xd1,
  0x81, 0xdd, 0x39, 0x0b, 0x35, 0xcb, 0xa3, 0x2c, 0x3c, 0x1b, 0xd3, 0xe5,
  0xbd, 0xc5, 0x3a, 0x38, 0x1e, 0x05, 0x1c, 0xe1, 0xc4, 0x34, 0xf6, 0xe9,
  0x43, 0xef, 0x08, 0xbc, 0xd2, 0x2f, 0xfd, 0xe8, 0x28, 0xf4, 0xfc, 0xd6,
  0xdf, 0x06, 0xe9, 0xff, 0x0e, 0x0c, 0x19, 0xbb, 0x81, 0xc3, 0x16, 0x39,
  0xde, 0x28, 0xf0, 0x00, 0xc4, 0x2e, 0xf5, 0xfa, 0x20, 0xc2, 0x0b, 0xae,
  0x1c, 0xdb, 0x2c, 0x0a, 0x1b, 0x1b, 0xe9, 0x08, 0xc1, 0x17, 0x2b, 0xf4,
  0xe5, 0x02, 0x06, 0x44, 0x0f, 0x0f, 0xe6, 0xd4, 0xb6, 0xcd, 0x3b, 0x0f,
  0x3a, 0x39, 0x53, 0xef, 0xd3, 0x49, 0x2a, 0x30, 0xfb, 0xff, 0x22, 0xdf,
  0xcd, 0xf1, 0xce, 0x0a, 0x1e, 0xa2, 0x3d, 0xee, 0xb3, 0xbc, 0xcc, 0x0e,
  0x5f, 0x20, 0xa6, 0x25, 0x5c, 0xf2, 0x1f, 0x1c, 0x47, 0xd1, 0x03, 0xb7,
  0x9a, 0x4e, 0xb2, 0x36, 0xb2, 0x27, 0x35, 0xa4, 0x81, 0x0b, 0x5d, 0xf4,
  0x26, 0xbb, 0xb3, 0x1a, 0x08, 0x38, 0xce, 0xe3, 0xad, 0xe0, 0x1e, 0x54,
  0x23, 0xc7, 0xc2, 0xb0, 0x09, 0x98, 0xad, 0x6e, 0xd3, 0x08, 0x64, 0xd8,
  0xd4, 0xf5, 0x42, 0x62, 0xc6, 0x4e, 0x4d, 0xa0, 0xe1, 0x33, 0xd3, 0x62,
  0x4a, 0x3f, 0xff, 0x4c, 0x1f, 0x10, 0x0c, 0xa1, 0x03, 0xd4, 0x33, 0xb6,
  0x1e, 0xac, 0x6d, 0x4d, 0x1a, 0xc9, 0x5c, 0x39, 0x5e, 0xde, 0xa9, 0x44,
  0xff, 0x1b, 0x1f, 0x62, 0xb8, 0x42, 0x39, 0xf9, 0xf9, 0x38, 0x23, 0x81,
  0xf5, 0x27, 0xe7, 0xfb, 0x00, 0x00, 0x00, 0x00, 0x00, 0x00, 0x00, 0x00,
  0x00, 0x00, 0x00, 0x00, 0x00, 0x00, 0x00, 0x00, 0x00, 0x00, 0x00, 0x00,
  0x00, 0x00, 0x00, 0x00, 0x00, 0x00, 0x00, 0x00, 0x00, 0x00, 0x00, 0x00,
  0x00, 0x00, 0x00, 0x00, 0x00, 0x00, 0x00, 0x00, 0x00, 0x00, 0x00, 0x00,
  0x00, 0x00, 0x00, 0x00, 0x00, 0x00, 0x00, 0x00, 0x00, 0x00, 0x00, 0x00,
  0x00, 0x00, 0x00, 0x00, 0x00, 0x00, 0x00, 0x00, 0x10, 0x15, 0xa0, 0xe2,
  0x04, 0x84, 0xbd, 0x34, 0xde, 0xd6, 0x34, 0x01, 0xc2, 0xb1, 0x4a, 0x66,
  0xf3, 0x24, 0x1e, 0xd1, 0xc7, 0x19, 0xd0, 0x37, 0x07, 0x4e, 0xfe, 0x42,
  0x26, 0xc9, 0x46, 0xb6, 0xfc, 0x81, 0x67, 0xe9, 0xf8, 0xc0, 0x31, 0x20,
  0x20, 0x00, 0x43, 0x05, 0x39, 0xc8, 0x8c, 0x33, 0x25, 0x29, 0x10, 0x30,
  0xd5, 0x20, 0x06, 0xd9, 0xe5, 0x42, 0x20, 0x91, 0x3a, 0x3f, 0xdd, 0x0b,
  0xce, 0xb4, 0x3b, 0x3c, 0x1c, 0x20, 0x21, 0x0b, 0xc9, 0x70, 0xe3, 0x1c,
  0x40, 0x2f, 0xd4, 0xd1, 0xea, 0xbd, 0xf3, 0x2d, 0x40, 0x9f, 0x55, 0xa4,
  0xe2, 0xd3, 0xb7, 0x53, 0x3e, 0x7f, 0xc7, 0xed, 0x28, 0x26, 0x02, 0x16,
  0x14, 0xd9, 0xe6, 0x84, 0xc5, 0x30, 0x94, 0x5b, 0xc6, 0x42, 0xef, 0xa0,
  0xb5, 0xe3, 0xfe, 0xf9, 0xf5, 0xb9, 0xce, 0x22, 0x5b, 0x29, 0x91, 0x30,
  0xb7, 0xb9, 0x17, 0x3f, 0xae, 0xad, 0x4a, 0x5b, 0x5b, 0x42, 0x3f, 0x02,
  0xd0, 0x6d, 0xe7, 0x3c, 0x3e, 0x35, 0xe6, 0xe1, 0xc2, 0xe1, 0xcd, 0x51,
  0x3e, 0xa8, 0x52, 0xa4, 0xb7, 0xb0, 0xaa, 0x2f, 0x57, 0x77, 0xa8, 0x32,
  0x4b, 0x2d, 0xd4, 0x05, 0x49, 0x07, 0xb5, 0x87, 0x9d, 0x4d, 0xa0, 0x3b,
  0xa0, 0x42, 0x4d, 0x93, 0x81, 0xe0, 0x38, 0xf7, 0x4d, 0xba, 0x95, 0x26,
  0x4f, 0x0b, 0xaf, 0x1d, 0x91, 0xa7, 0x26, 0x3f, 0x4a, 0xdc, 0xdc, 0xde,
  0xd9, 0x0c, 0x92, 0x69, 0xf4, 0x16, 0x11, 0xac, 0xac, 0xcf, 0x41, 0x41,
  0xc8, 0x3e, 0x0a, 0xa5, 0xa7, 0x67, 0x81, 0x07, 0x51, 0x79, 0x4d, 0x5d,
  0x19, 0xd2, 0x72, 0xbc, 0x11, 0x1d, 0x04, 0x9f, 0xca, 0xcd, 0x17, 0x29,
  0xf0, 0xf7, 0x47, 0xbd, 0x2e, 0xf5, 0xb7, 0x33, 0x38, 0x00, 0x18, 0x40,
  0xb8, 0x4b, 0xfd, 0xc0, 0xdd, 0x1b, 0x3e, 0xcd, 0x35, 0x59, 0x97, 0x28,
  0x00, 0x00, 0x00, 0x00, 0x00, 0x00, 0x00, 0x00, 0x00, 0x00, 0x00, 0x00,
  0x00, 0x00, 0x00, 0x00, 0x00, 0x00, 0x00, 0x00, 0x00, 0x00, 0x00, 0x00,
  0x00, 0x00, 0x00, 0x00, 0x00, 0x00, 0x00, 0x00, 0x00, 0x00, 0x00, 0x00,
  0x00, 0x00, 0x00, 0x00, 0x00, 0x00, 0x00, 0x00, 0x00, 0x00, 0x00, 0x00,
  0x00, 0x00, 0x00, 0x00, 0x00, 0x00, 0x00, 0x00, 0x00, 0x00, 0x00, 0x00,
  0x00, 0x00, 0x00, 0x00, 0xc7, 0xec, 0x3e, 0x19, 0x37, 0x44, 0x5a, 0xe5,
  0xc8, 0x4e, 0x30, 0x26, 0x47, 0x00, 0xda, 0xde, 0x9e, 0x01, 0x0b, 0x1c,
  0x24, 0xaa, 0x43, 0xd6, 0x8c, 0x8d, 0x81, 0x5c, 0x3c, 0x7f, 0xc8, 0x1c,
  0x54, 0x3e, 0x13, 0xf9, 0x0f, 0xea, 0xd1, 0xc1, 0xbc, 0x6c, 0xf4, 0x39,
  0xbe, 0x2f, 0xfb, 0xd4, 0x91, 0xe5, 0x52, 0x0a, 0x40, 0xb1, 0xc5, 0xfe,
  0xeb, 0xfc, 0xb7, 0xeb, 0xbf, 0xdd, 0x07, 0x1e, 0x35, 0xba, 0x0e, 0xb5,
  0xb6, 0x18, 0xb3, 0x66, 0x59, 0xf4, 0x2d, 0xd2, 0xb5, 0xf9, 0x6b, 0x49,
  0xc3, 0x33, 0x16, 0x99, 0x97, 0x76, 0x8d, 0x5a, 0x68, 0x65, 0x58, 0xe2,
  0xb2, 0x81, 0x4e, 0xbb, 0xf7, 0x17, 0x46, 0x9d, 0xb2, 0xa8, 0x69, 0x50,
  0xe2, 0xe8, 0x38, 0xb9, 0x41, 0x92, 0xd2, 0x30, 0x4e, 0x25, 0x09, 0x56,
  0x8e, 0x50, 0x2a, 0xdf, 0xab, 0x2b, 0x37, 0x0a, 0x3f, 0x1b, 0xb3, 0xd8,
  0x55, 0xb8, 0xff, 0xbb, 0xd4, 0x1f, 0xb5, 0x45, 0x3d, 0xff, 0x3b, 0xc7,
  0xb8, 0x22, 0x4d, 0x1e, 0xd3, 0x46, 0x38, 0x97, 0xc0, 0x4e, 0xa5, 0x61,
  0x4f, 0x43, 0x28, 0xf0, 0xa0, 0x97, 0x34, 0xde, 0x18, 0x4f, 0x15, 0x81,
  0xbe, 0xc5, 0x4d, 0x47, 0xfd, 0xc4, 0x36, 0xf7, 0x50, 0xcb, 0xff, 0x47,
  0x50, 0x57, 0x1c, 0x44, 0xb1, 0x40, 0x2b, 0xfd, 0xe7, 0x36, 0x32, 0x13,
  0x32, 0x42, 0xa0, 0xf7, 0x00, 0x00, 0x00, 0x00, 0x00, 0x00, 0x00, 0x00,
  0x00, 0x00, 0x00, 0x00, 0x00, 0x00, 0x00, 0x00, 0x00, 0x00, 0x00, 0x00,
  0x00, 0x00, 0x00, 0x00, 0x00, 0x00, 0x00, 0x00, 0x00, 0x00, 0x00, 0x00,
  0x00, 0x00, 0x00, 0x00, 0x00, 0x00, 0x00, 0x00, 0x00, 0x00, 0x00, 0x00,
  0x00, 0x00, 0x00, 0x00, 0x00, 0x00, 0x00, 0x00, 0x00, 0x00, 0x00, 0x00,
  0x00, 0x00, 0x00, 0x00, 0x00, 0x00, 0x00, 0x00, 0x00, 0x00, 0x00, 0x00,
  0x00, 0x00, 0x00, 0x00, 0x00, 0x00, 0x00, 0x00, 0x00, 0x00, 0x00, 0x00,
  0x00, 0x00, 0x00, 0x00, 0x00, 0x00, 0x00, 0x00, 0x00, 0x00, 0x00, 0x00,
  0x00, 0x00, 0x00, 0x00, 0x00, 0x00, 0x00, 0x00, 0x00, 0x00, 0x00, 0x00,
  0x00, 0x00, 0x00, 0x00, 0x00, 0x00, 0x00, 0x00, 0x00, 0x00, 0x00, 0x00,
  0x00, 0x00, 0x00, 0x00, 0x00, 0x00, 0x00, 0x00, 0x00, 0x00, 0x00, 0x00,
  0x00, 0x00, 0x00, 0x00, 0x00, 0x00, 0x00, 0x00, 0x00, 0x00, 0x00, 0x00,
  0x00, 0x00, 0x00, 0x00, 0x00, 0x00, 0x00, 0x00, 0x00, 0x00, 0x00, 0x00,
  0x00, 0x00, 0x00, 0x00, 0x00, 0x00, 0x00, 0x00, 0x00, 0x00, 0x00, 0x00,
  0x00, 0x00, 0x00, 0x00, 0x00, 0x00, 0x00, 0x00, 0x00, 0x00, 0x00, 0x00,
  0x00, 0x00, 0x00, 0x00, 0x00, 0x00, 0x00, 0x00, 0x00, 0x00, 0x00, 0x00,
  0x00, 0x00, 0x00, 0x00, 0x99, 0xd6, 0x46, 0x31, 0x39, 0x26, 0x59, 0x0d,
  0xcf, 0x2f, 0x24, 0x0f, 0x2b, 0x2c, 0x0a, 0x0e, 0xc3, 0xe3, 0xeb, 0x4f,
  0x1c, 0xaf, 0x21, 0xb2, 0xea, 0x9e, 0xc6, 0x36, 0x74, 0x24, 0xac, 0x07,
  0x27, 0x26, 0xe8, 0xf9, 0x66, 0xec, 0xe4, 0xcc, 0x9d, 0x36, 0xcd, 0x46,
  0xc5, 0x2f, 0x18, 0xc0, 0x81, 0x00, 0x4b, 0xfd, 0x14, 0xb3, 0xc4, 0x2c,
  0x48, 0x0c, 0xff, 0x02, 0xb6, 0xd8, 0x35, 0x10, 0x00, 0x00, 0x00, 0x00,
  0x00, 0x00, 0x00, 0x00, 0x00, 0x00, 0x00, 0x00, 0x00, 0x00, 0x00, 0x00,
  0x00, 0x00, 0x00, 0x00, 0x00, 0x00, 0x00, 0x00, 0x00, 0x00, 0x00, 0x00,
  0x00, 0x00, 0x00, 0x00, 0x00, 0x00, 0x00, 0x00, 0x00, 0x00, 0x00, 0x00,
  0x00, 0x00, 0x00, 0x00, 0x00, 0x00, 0x00, 0x00, 0x00, 0x00, 0x00, 0x00,
  0x00, 0x00, 0x00, 0x00, 0x00, 0x00, 0x00, 0x00, 0x00, 0x00, 0x00, 0x00,
  0x00, 0x00, 0x00, 0x00, 0x00, 0x00, 0x00, 0x00, 0x00, 0x00, 0x00, 0x00,
  0x00, 0x00, 0x00, 0x00, 0x00, 0x00, 0x00, 0x00, 0x00, 0x00, 0x00, 0x00,
  0x00, 0x00, 0x00, 0x00, 0x00, 0x00, 0x00, 0x00, 0x00, 0x00, 0x00, 0x00,
  0x00, 0x00, 0x00, 0x00, 0x00, 0x00, 0x00, 0x00, 0x00, 0x00, 0x00, 0x00,
  0x00, 0x00, 0x00, 0x00, 0x00, 0x00, 0x00, 0x00, 0x00, 0x00, 0x00, 0x00,
  0x00, 0x00, 0x00, 0x00, 0x00, 0x00, 0x00, 0x00, 0x00, 0x00, 0x00, 0x00,
  0x00, 0x00, 0x00, 0x00, 0x00, 0x00, 0x00, 0x00, 0x00, 0x00, 0x00, 0x00,
  0x00, 0x00, 0x00, 0x00, 0x00, 0x00, 0x00, 0x00, 0x00, 0x00, 0x00, 0x00,
  0x00, 0x00, 0x00, 0x00, 0x00, 0x00, 0x00, 0x00, 0x00, 0x00, 0x00, 0x00,
  0x00, 0x00, 0x00, 0x00, 0x00, 0x00, 0x00, 0x00, 0x00, 0x00, 0x00, 0x00,
  0x00, 0x00, 0x00, 0x00, 0x00, 0x00, 0x00, 0x00, 0x00, 0x00, 0x00, 0x00,
  0x00, 0x00, 0x00, 0x00, 0x00, 0x00, 0x00, 0x00, 0x00, 0x00, 0x00, 0x00,
  0x00, 0x00, 0x00, 0x00, 0x00, 0x00, 0x00, 0x00, 0x00, 0x00, 0x00, 0x00,
  0x00, 0x00, 0x00, 0x00, 0x00, 0x00, 0x00, 0x00, 0x00, 0x00, 0x00, 0x00,
  0x00, 0x00, 0x00, 0x00, 0x00, 0x00, 0x00, 0x00, 0x00, 0x00, 0x00, 0x00,
  0x00, 0x00, 0x00, 0x00, 0x00, 0x00, 0x00, 0x00, 0x00, 0x00, 0x00, 0x00,
  0x00, 0x00, 0x00, 0x00, 0x00, 0x00, 0x00, 0x00, 0x00, 0x00, 0x00, 0x00,
  0x00, 0x00, 0x00, 0x00, 0x00, 0x00, 0x00, 0x00, 0x00, 0x00, 0x00, 0x00,
  0x00, 0x00, 0x00, 0x00, 0x00, 0x00, 0x00, 0x00, 0x00, 0x00, 0x00, 0x00,
  0x00, 0x00, 0x00, 0x00, 0x00, 0x00, 0x00, 0x00, 0x00, 0x00, 0x00, 0x00,
  0x00, 0x00, 0x00, 0x00, 0x00, 0x00, 0x00, 0x00, 0x00, 0x00, 0x00, 0x00,
  0x00, 0x00, 0x00, 0x00, 0x56, 0xfd, 0xff, 0xff, 0x04, 0x00, 0x00, 0x00,
  0x00, 0x02, 0x00, 0x00, 0x20, 0x05, 0x66, 0xed, 0x59, 0x02, 0x00, 0x00,
  0xc0, 0xb8, 0x36, 0xe3, 0x00, 0xc8, 0x96, 0xde, 0x6c, 0xf2, 0xff, 0xff,
  0x00, 0xfd, 0xbe, 0xeb, 0xa0, 0x36, 0xe0, 0xec, 0xec, 0x07, 0x00, 0x00,
  0x2d, 0x06, 0x00, 0x00, 0x11, 0xfb, 0xff, 0xff, 0x80, 0x7e, 0x17, 0xe0,
  0xa0, 0x30, 0x03, 0xeb, 0x90, 0xf8, 0x2c, 0xf1, 0x40, 0xfe, 0x5d, 0xee,
  0xb3, 0x06, 0x00, 0x00, 0xca, 0x01, 0x00, 0x00, 0x7c, 0x01, 0x00, 0x00,
  0xe0, 0x60, 0x4d, 0xe8, 0xe0, 0x60, 0xab, 0xe3, 0x04, 0xfd, 0xff, 0xff,
  0xd7, 0x07, 0x00, 0x00, 0x20, 0x77, 0x2c, 0xe6, 0xc0, 0x35, 0x2d, 0xe3,
  0x60, 0xf9, 0x14, 0xf6, 0x40, 0x8e, 0x93, 0xe2, 0x4e, 0x05, 0x00, 0x00,
  0x57, 0x06, 0x00, 0x00, 0xa0, 0xf3, 0xf6, 0xe7, 0x1f, 0x02, 0x00, 0x00,
  0xe0, 0x6f, 0xc6, 0xf1, 0x20, 0xba, 0xce, 0xe3, 0x74, 0x05, 0x00, 0x00,
  0x00, 0xe0, 0xf8, 0xe3, 0xa0, 0x99, 0xc3, 0xed, 0x80, 0x2c, 0xe2, 0xe8,
  0x60, 0xf9, 0xd9, 0xef, 0xe0, 0xc0, 0xbc, 0xec, 0x00, 0xbc, 0xd8, 0xe4,
  0xe0, 0x8f, 0xba, 0xef, 0x40, 0x90, 0xe1, 0xe3, 0x50, 0x04, 0x00, 0x00,
  0xfb, 0x04, 0x00, 0x00, 0xa0, 0xfd, 0xff, 0xff, 0x40, 0x61, 0x65, 0xdf,
  0x3b, 0x02, 0x00, 0x00, 0x40, 0xa5, 0x45, 0xe6, 0xf0, 0x58, 0xa3, 0xf6,
  0x60, 0xf3, 0xf2, 0xe9, 0xa0, 0x9f, 0x60, 0xe3, 0xc0, 0x21, 0x4f, 0xec,
  0x94, 0x04, 0x00, 0x00, 0xa0, 0xf5, 0xe4, 0xf2, 0xf2, 0x02, 0x00, 0x00,
  0x80, 0xfa, 0x72, 0xe3, 0x60, 0x4c, 0xbe, 0xe5, 0x80, 0x95, 0xe3, 0xec,
  0x40, 0x48, 0xab, 0xeb, 0x40, 0x38, 0x58, 0xe6, 0xc0, 0x9b, 0x03, 0xe4,
  0x40, 0x54, 0x99, 0xc8, 0xe0, 0x1c, 0x84, 0xec, 0xd0, 0x6a, 0x30, 0xf2,
  0x60, 0x9f, 0xbd, 0xf0, 0xa0, 0x41, 0x27, 0xe7, 0x10, 0x2f, 0xea, 0xf0,
  0x40, 0x04, 0x36, 0xe6, 0x80, 0x6f, 0x2c, 0xeb, 0x40, 0xe4, 0xa1, 0xec,
  0xaf, 0x04, 0x00, 0x00, 0x30, 0x1c, 0x26, 0xf5, 0x20, 0xb7, 0x3b, 0xe9,
  0x78, 0x1b, 0x36, 0xf8, 0x6d, 0x09, 0x00, 0x00, 0xa2, 0xff, 0xff, 0xff,
  0x60, 0x09, 0x18, 0xf3, 0x40, 0xdf, 0x05, 0xda, 0x73, 0x04, 0x00, 0x00,
  0x35, 0x01, 0x00, 0x00, 0xe0, 0xc3, 0x8d, 0xee, 0xa0, 0x04, 0x9a, 0xf6,
  0x00, 0xf1, 0x4a, 0xed, 0x4b, 0x04, 0x00, 0x00, 0x44, 0x04, 0x00, 0x00,
  0xc0, 0x14, 0x09, 0xe9, 0x40, 0x63, 0xba, 0xee, 0x2e, 0x04, 0x00, 0x00,
  0x6d, 0x02, 0x00, 0x00, 0x40, 0x17, 0x3b, 0xda, 0x55, 0x02, 0x00, 0x00,
  0x98, 0x01, 0x00, 0x00, 0xa0, 0x15, 0x69, 0xf1, 0x87, 0x07, 0x00, 0x00,
  0x10, 0xfe, 0xff, 0xff, 0x6b, 0x04, 0x00, 0x00, 0x87, 0x04, 0x00, 0x00,
  0x40, 0x7e, 0xae, 0xf2, 0xf5, 0xfd, 0xff, 0xff, 0xf0, 0x0b, 0x69, 0xf0,
  0x1d, 0x02, 0x00, 0x00, 0xe4, 0xff, 0xff, 0xff, 0xf4, 0x02, 0x00, 0x00,
  0x00, 0x28, 0x6e, 0xe6, 0xc0, 0x5e, 0xe3, 0xef, 0xa0, 0x9d, 0x4d, 0xea,
  0x80, 0x46, 0xa9, 0xea, 0xe0, 0x35, 0x31, 0xe7, 0x70, 0x02, 0x00, 0x00,
  0x4e, 0xff, 0xff, 0xff, 0xcd, 0x08, 0x00, 0x00, 0x9b, 0x00, 0x00, 0x00,
  0x40, 0x86, 0xb6, 0xef, 0x88, 0x01, 0x00, 0x00, 0x3d, 0x07, 0x00, 0x00,
  0x09, 0x04, 0x00, 0x00, 0x5f, 0x04, 0x00, 0x00, 0x80, 0x49, 0xd8, 0xd4,
  0x3a, 0x05, 0x00, 0x00, 0xd5, 0x04, 0x00, 0x00, 0xe3, 0x07, 0x00, 0x00,
  0xe0, 0x26, 0x9e, 0xee, 0x60, 0x81, 0xb1, 0xed, 0x00, 0x21, 0x21, 0xe1,
  0xd9, 0x04, 0x00, 0x00, 0x90, 0x72, 0x7a, 0xfb, 0x40, 0x86, 0x8b, 0xd5,
  0x60, 0x24, 0x84, 0xf7, 0x60, 0xf7, 0x38, 0xee, 0xd0, 0xfb, 0xbb, 0xf6,
  0x62, 0xff, 0xff, 0xff, 0x04, 0x00, 0x00, 0x00, 0x80, 0x00, 0x00, 0x00,
  0x04, 0xcf, 0x17, 0x12, 0x67, 0xfc, 0xff, 0x30, 0xda, 0x5a, 0xe7, 0xf0,
  0x09, 0x10, 0xc0, 0x41, 0x33, 0x00, 0xfc, 0x3c, 0xd4, 0x01, 0xe9, 0x07,
  0x14, 0xe3, 0xea, 0xff, 0xc4, 0xff, 0x18, 0xdd, 0xfc, 0x0d, 0xe1, 0x05,
  0x07, 0xe5, 0xf5, 0x0c, 0x3b, 0xdc, 0x3d, 0xf6, 0xe1, 0xf1, 0xfb, 0xf8,
  0xeb, 0xee, 0xcc, 0x06, 0x46, 0xf9, 0xfe, 0xe3, 0x14, 0x12, 0xe7, 0xef,
  0x20, 0x0c, 0x0c, 0x00, 0xfb, 0x10, 0x16, 0xf9, 0xde, 0xf2, 0x06, 0xfd,
  0x2e, 0x5c, 0xe6, 0xe4, 0xdf, 0x36, 0x17, 0x01, 0x21, 0x3c, 0x36, 0xe6,
  0xe6, 0xd1, 0x49, 0xe8, 0x37, 0x47, 0xfd, 0xe2, 0x2b, 0x3c, 0xd0, 0x0c,
  0x43, 0x0a, 0xe8, 0xcd, 0xc9, 0xfc, 0x0f, 0x14, 0x11, 0x10, 0xd5, 0x7f,
  0xcf, 0x4f, 0x0a, 0x21, 0xdb, 0xd7, 0x41, 0x12, 0xc9, 0x33, 0x39, 0xf4,
  0x0d, 0x05, 0xd5, 0x02, 0xeb, 0x00, 0xf0, 0x00, 0xee, 0xff, 0xff, 0xff,
  0x04, 0x00, 0x00, 0x00, 0x04, 0x00, 0x00, 0x00, 0x3b, 0xfd, 0xff, 0xff,
  0x00, 0x00, 0x06, 0x00, 0x08, 0x00, 0x04, 0x00, 0x06, 0x00, 0x00, 0x00,
  0x04, 0x00, 0x00, 0x00, 0x08, 0x00, 0x00, 0x00, 0x01, 0x00, 0x00, 0x00,
  0x02, 0x00, 0x00, 0x00, 0x28, 0xc6, 0xff, 0xff, 0x2c, 0xc6, 0xff, 0xff,
  0x0f, 0x00, 0x00, 0x00, 0x4d, 0x4c, 0x49, 0x52, 0x20, 0x43, 0x6f, 0x6e,
  0x76, 0x65, 0x72, 0x74, 0x65, 0x64, 0x2e, 0x00, 0x01, 0x00, 0x00, 0x00,
  0x14, 0x00, 0x00, 0x00, 0x00, 0x00, 0x0e, 0x00, 0x18, 0x00, 0x14, 0x00,
  0x10, 0x00, 0x0c, 0x00, 0x08, 0x00, 0x04, 0x00, 0x0e, 0x00, 0x00, 0x00,
  0x14, 0x00, 0x00, 0x00, 0x1c, 0x00, 0x00, 0x00, 0xa4, 0x03, 0x00, 0x00,
  0xa8, 0x03, 0x00, 0x00, 0xac, 0x03, 0x00, 0x00, 0x04, 0x00, 0x00, 0x00,
  0x6d, 0x61, 0x69, 0x6e, 0x00, 0x00, 0x00, 0x00, 0x0e, 0x00, 0x00, 0x00,
  0x6c, 0x03, 0x00, 0x00, 0x10, 0x03, 0x00, 0x00, 0xa8, 0x02, 0x00, 0x00,
  0x64, 0x02, 0x00, 0x00, 0x1c, 0x02, 0x00, 0x00, 0xd8, 0x01, 0x00, 0x00,
  0x90, 0x01, 0x00, 0x00, 0x48, 0x01, 0x00, 0x00, 0x04, 0x01, 0x00, 0x00,
  0xd0, 0x00, 0x00, 0x00, 0x8c, 0x00, 0x00, 0x00, 0x54, 0x00, 0x00, 0x00,
  0x30, 0x00, 0x00, 0x00, 0x04, 0x00, 0x00, 0x00, 0xd6, 0xfc, 0xff, 0xff,
  0x08, 0x00, 0x00, 0x00, 0x0c, 0x00, 0x00, 0x00, 0x01, 0x00, 0x00, 0x00,
  0x23, 0x00, 0x00, 0x00, 0x01, 0x00, 0x00, 0x00, 0x22, 0x00, 0x00, 0x00,
  0x00, 0x00, 0x0a, 0x00, 0x10, 0x00, 0x0c, 0x00, 0x08, 0x00, 0x04, 0x00,
  0x0a, 0x00, 0x00, 0x00, 0x0c, 0x00, 0x00, 0x00, 0x10, 0x00, 0x00, 0x00,
  0x05, 0x00, 0x00, 0x00, 0x01, 0x00, 0x00, 0x00, 0x22, 0x00, 0x00, 0x00,
  0x01, 0x00, 0x00, 0x00, 0x21, 0x00, 0x00, 0x00, 0x7a, 0xfd, 0xff, 0xff,
  0x14, 0x00, 0x00, 0x00, 0x00, 0x00, 0x00, 0x08, 0x10, 0x00, 0x00, 0x00,
  0x14, 0x00, 0x00, 0x00, 0x04, 0x00, 0x00, 0x00, 0x1c, 0xc7, 0xff, 0xff,
  0x01, 0x00, 0x00, 0x00, 0x21, 0x00, 0x00, 0x00, 0x03, 0x00, 0x00, 0x00,
  0x20, 0x00, 0x00, 0x00, 0x03, 0x00, 0x00, 0x00, 0x02, 0x00, 0x00, 0x00,
  0xae, 0xfd, 0xff, 0xff, 0x1c, 0x00, 0x00, 0x00, 0x00, 0x00, 0x00, 0x08,
  0x1c, 0x00, 0x00, 0x00, 0x20, 0x00, 0x00, 0x00, 0x04, 0x00, 0x00, 0x00,
  0x00, 0x00, 0x06, 0x00, 0x08, 0x00, 0x07, 0x00, 0x06, 0x00, 0x00, 0x00,
  0x00, 0x00, 0x00, 0x01, 0x01, 0x00, 0x00, 0x00, 0x20, 0x00, 0x00, 0x00,
  0x03, 0x00, 0x00, 0x00, 0x1f, 0x00, 0x00, 0x00, 0x05, 0x00, 0x00, 0x00,
  0x04, 0x00, 0x00, 0x00, 0xee, 0xfd, 0xff, 0xff, 0x14, 0x00, 0x00, 0x00,
  0x00, 0x00, 0x00, 0x1b, 0x10, 0x00, 0x00, 0x00, 0x14, 0x00, 0x00, 0x00,
  0x03, 0x00, 0x00, 0x00, 0x90, 0xc7, 0xff, 0xff, 0x01, 0x00, 0x00, 0x00,
  0x1f, 0x00, 0x00, 0x00, 0x02, 0x00, 0x00, 0x00, 0x1e, 0x00, 0x00, 0x00,
  0x01, 0x00, 0x00, 0x00, 0x1e, 0xfe, 0xff, 0xff, 0x14, 0x00, 0x00, 0x00,
  0x00, 0x00, 0x00, 0x01, 0x1c, 0x00, 0x00, 0x00, 0x20, 0x00, 0x00, 0x00,
  0x01, 0x00, 0x00, 0x00, 0x10, 0xfe, 0xff, 0xff, 0x00, 0x00, 0x00, 0x01,
  0x01, 0x00, 0x00, 0x00, 0x01, 0x00, 0x00, 0x00, 0x01, 0x00, 0x00, 0x00,
  0x1e, 0x00, 0x00, 0x00, 0x03, 0x00, 0x00, 0x00, 0x1d, 0x00, 0x00, 0x00,
  0x07, 0x00, 0x00, 0x00, 0x06, 0x00, 0x00, 0x00, 0x5e, 0xfe, 0xff, 0xff,
  0x14, 0x00, 0x00, 0x00, 0x00, 0x00, 0x00, 0x02, 0x20, 0x00, 0x00, 0x00,
  0x24, 0x00, 0x00, 0x00, 0x02, 0x00, 0x00, 0x00, 0xb2, 0xfe, 0xff, 0xff,
  0x00, 0x00, 0x00, 0x01, 0x01, 0x00, 0x00, 0x00, 0x02, 0x00, 0x00, 0x00,
  0x02, 0x00, 0x00, 0x00, 0x01, 0x00, 0x00, 0x00, 0x1d, 0x00, 0x00, 0x00,
  0x03, 0x00, 0x00, 0x00, 0x1c, 0x00, 0x00, 0x00, 0x09, 0x00, 0x00, 0x00,
  0x08, 0x00, 0x00, 0x00, 0xa2, 0xfe, 0xff, 0xff, 0x14, 0x00, 0x00, 0x00,
  0x00, 0x00, 0x00, 0x02, 0x20, 0x00, 0x00, 0x00, 0x24, 0x00, 0x00, 0x00,
  0x02, 0x00, 0x00, 0x00, 0xf6, 0xfe, 0xff, 0xff, 0x00, 0x00, 0x00, 0x01,
  0x01, 0x00, 0x00, 0x00, 0x01, 0x00, 0x00, 0x00, 0x01, 0x00, 0x00, 0x00,
  0x01, 0x00, 0x00, 0x00, 0x1c, 0x00, 0x00, 0x00, 0x03, 0x00, 0x00, 0x00,
  0x1b, 0x00, 0x00, 0x00, 0x0b, 0x00, 0x00, 0x00, 0x0a, 0x00, 0x00, 0x00,
  0xe6, 0xfe, 0xff, 0xff, 0x14, 0x00, 0x00, 0x00, 0x00, 0x00, 0x00, 0x01,
  0x1c, 0x00, 0x00, 0x00, 0x20, 0x00, 0x00, 0x00, 0x01, 0x00, 0x00, 0x00,
  0xd8, 0xfe, 0xff, 0xff, 0x00, 0x00, 0x00, 0x01, 0x01, 0x00, 0x00, 0x00,
  0x01, 0x00, 0x00, 0x00, 0x01, 0x00, 0x00, 0x00, 0x1b, 0x00, 0x00, 0x00,
  0x03, 0x00, 0x00, 0x00, 0x1a, 0x00, 0x00, 0x00, 0x0d, 0x00, 0x00, 0x00,
  0x0c, 0x00, 0x00, 0x00, 0x26, 0xff, 0xff, 0xff, 0x14, 0x00, 0x00, 0x00,
  0x00, 0x00, 0x00, 0x02, 0x20, 0x00, 0x00, 0x00, 0x24, 0x00, 0x00, 0x00,
  0x02, 0x00, 0x00, 0x00, 0x7a, 0xff, 0xff, 0xff, 0x00, 0x00, 0x00, 0x01,
  0x01, 0x00, 0x00, 0x00, 0x02, 0x00, 0x00, 0x00, 0x02, 0x00, 0x00, 0x00,
  0x01, 0x00, 0x00, 0x00, 0x1a, 0x00, 0x00, 0x00, 0x03, 0x00, 0x00, 0x00,
  0x19, 0x00, 0x00, 0x00, 0x0f, 0x00, 0x00, 0x00, 0x0e, 0x00, 0x00, 0x00,
  0x6a, 0xff, 0xff, 0xff, 0x14, 0x00, 0x00, 0x00, 0x00, 0x00, 0x00, 0x01,
  0x1c, 0x00, 0x00, 0x00, 0x20, 0x00, 0x00, 0x00, 0x01, 0x00, 0x00, 0x00,
  0x5c, 0xff, 0xff, 0xff, 0x00, 0x00, 0x00, 0x01, 0x01, 0x00, 0x00, 0x00,
  0x01, 0x00, 0x00, 0x00, 0x01, 0x00, 0x00, 0x00, 0x19, 0x00, 0x00, 0x00,
  0x03, 0x00, 0x00, 0x00, 0x18, 0x00, 0x00, 0x00, 0x11, 0x00, 0x00, 0x00,
  0x10, 0x00, 0x00, 0x00, 0xaa, 0xff, 0xff, 0xff, 0x24, 0x00, 0x00, 0x00,
  0x00, 0x00, 0x00, 0x02, 0x30, 0x00, 0x00, 0x00, 0x34, 0x00, 0x00, 0x00,
  0x02, 0x00, 0x00, 0x00, 0x00, 0x00, 0x0e, 0x00, 0x14, 0x00, 0x00, 0x00,
  0x10, 0x00, 0x0c, 0x00, 0x08, 0x00, 0x07, 0x00, 0x0e, 0x00, 0x00, 0x00,
  0x00, 0x00, 0x00, 0x01, 0x01, 0x00, 0x00, 0x00, 0x01, 0x00, 0x00, 0x00,
  0x01, 0x00, 0x00, 0x00, 0x01, 0x00, 0x00, 0x00, 0x18, 0x00, 0x00, 0x00,
  0x03, 0x00, 0x00, 0x00, 0x17, 0x00, 0x00, 0x00, 0x13, 0x00, 0x00, 0x00,
  0x12, 0x00, 0x00, 0x00, 0x00, 0x00, 0x0e, 0x00, 0x18, 0x00, 0x14, 0x00,
  0x10, 0x00, 0x0c, 0x00, 0x0b, 0x00, 0x04, 0x00, 0x0e, 0x00, 0x00, 0x00,
  0x20, 0x00, 0x00, 0x00, 0x00, 0x00, 0x00, 0x01, 0x28, 0x00, 0x00, 0x00,
  0x2c, 0x00, 0x00, 0x00, 0x01, 0x00, 0x00, 0x00, 0x0c, 0x00, 0x10, 0x00,
  0x00, 0x00, 0x0c, 0x00, 0x08, 0x00, 0x07, 0x00, 0x0c, 0x00, 0x00, 0x00,
  0x00, 0x00, 0x00, 0x01, 0x02, 0x00, 0x00, 0x00, 0x02, 0x00, 0x00, 0x00,
  0x01, 0x00, 0x00, 0x00, 0x17, 0x00, 0x00, 0x00, 0x03, 0x00, 0x00, 0x00,
  0x16, 0x00, 0x00, 0x00, 0x15, 0x00, 0x00, 0x00, 0x14, 0x00, 0x00, 0x00,
  0x00, 0x00, 0x0a, 0x00, 0x0c, 0x00, 0x00, 0x00, 0x08, 0x00, 0x04, 0x00,
  0x0a, 0x00, 0x00, 0x00, 0x08, 0x00, 0x00, 0x00, 0x0c, 0x00, 0x00, 0x00,
  0x01, 0x00, 0x00, 0x00, 0x16, 0x00, 0x00, 0x00, 0x01, 0x00, 0x00, 0x00,
  0x00, 0x00, 0x00, 0x00, 0x01, 0x00, 0x00, 0x00, 0x23, 0x00, 0x00, 0x00,
  0x01, 0x00, 0x00, 0x00, 0x00, 0x00, 0x00, 0x00, 0x24, 0x00, 0x00, 0x00,
  0x1c, 0x36, 0x00, 0x00, 0xc0, 0x35, 0x00, 0x00, 0x48, 0x35, 0x00, 0x00,
  0xe4, 0x34, 0x00, 0x00, 0x90, 0x2e, 0x00, 0x00, 0x34, 0x28, 0x00, 0x00,
  0xe0, 0x24, 0x00, 0x00, 0x7c, 0x21, 0x00, 0x00, 0xa8, 0x1f, 0x00, 0x00,
  0xac, 0x1d, 0x00, 0x00, 0xd8, 0x1b, 0x00, 0x00, 0xf0, 0x19, 0x00, 0x00,
  0x18, 0x18, 0x00, 0x00, 0x34, 0x16, 0x00, 0x00, 0x20, 0x15, 0x00, 0x00,
  0xf8, 0x13, 0x00, 0x00, 0xe0, 0x12, 0x00, 0x00, 0xbc, 0x11, 0x00, 0x00,
  0x08, 0x11, 0x00, 0x00, 0x40, 0x10, 0x00, 0x00, 0x88, 0x0f, 0x00, 0x00,
  0xc4, 0x0e, 0x00, 0x00, 0x40, 0x0e, 0x00, 0x00, 0x14, 0x0d, 0x00, 0x00,
  0x70, 0x0b, 0x00, 0x00, 0x44, 0x0a, 0x00, 0x00, 0xa0, 0x08, 0x00, 0x00,
  0x74, 0x07, 0x00, 0x00, 0xd0, 0x05, 0x00, 0x00, 0x2c, 0x04, 0x00, 0x00,
  0x00, 0x03, 0x00, 0x00, 0x6c, 0x02, 0x00, 0x00, 0xa8, 0x01, 0x00, 0x00,
  0x04, 0x01, 0x00, 0x00, 0x80, 0x00, 0x00, 0x00, 0x04, 0x00, 0x00, 0x00,
  0x8a, 0xca, 0xff, 0xff, 0x00, 0x00, 0x00, 0x01, 0x18, 0x00, 0x00, 0x00,
  0x20, 0x00, 0x00, 0x00, 0x3c, 0x00, 0x00, 0x00, 0x24, 0x00, 0x00, 0x00,
  0x00, 0x00, 0x00, 0x03, 0x50, 0x00, 0x00, 0x00, 0x02, 0x00, 0x00, 0x00,
  0xff, 0xff, 0xff, 0xff, 0x01, 0x00, 0x00, 0x00, 0x6c, 0xca, 0xff, 0xff,
  0x08, 0x00, 0x00, 0x00, 0x10, 0x00, 0x00, 0x00, 0x01, 0x00, 0x00, 0x00,
  0x00, 0x00, 0x00, 0x00, 0x00, 0x00, 0x00, 0x00, 0x01, 0x00, 0x00, 0x00,
  0x00, 0x00, 0x80, 0x3b, 0x1b, 0x00, 0x00, 0x00, 0x53, 0x74, 0x61, 0x74,
  0x65, 0x66, 0x75, 0x6c, 0x50, 0x61, 0x72, 0x74, 0x69, 0x74, 0x69, 0x6f,
  0x6e, 0x65, 0x64, 0x43, 0x61, 0x6c, 0x6c, 0x5f, 0x31, 0x3a, 0x30, 0x00,
  0x02, 0x00, 0x00, 0x00, 0x01, 0x00, 0x00, 0x00, 0x01, 0x00, 0x00, 0x00,
  0x02, 0xcb, 0xff, 0xff, 0x00, 0x00, 0x00, 0x01, 0x18, 0x00, 0x00, 0x00,
  0x20, 0x00, 0x00, 0x00, 0x40, 0x00, 0x00, 0x00, 0x23, 0x00, 0x00, 0x00,
  0x00, 0x00, 0x00, 0x09, 0x58, 0x00, 0x00, 0x00, 0x02, 0x00, 0x00, 0x00,
  0xff, 0xff, 0xff, 0xff, 0x01, 0x00, 0x00, 0x00, 0xe4, 0xca, 0xff, 0xff,
  0x08, 0x00, 0x00, 0x00, 0x14, 0x00, 0x00, 0x00, 0x01, 0x00, 0x00, 0x00,
  0x80, 0xff, 0xff, 0xff, 0xff, 0xff, 0xff, 0xff, 0x00, 0x00, 0x00, 0x00,
  0x01, 0x00, 0x00, 0x00, 0x00, 0x00, 0x80, 0x3b, 0x1c, 0x00, 0x00, 0x00,
  0x53, 0x74, 0x61, 0x74, 0x65, 0x66, 0x75, 0x6c, 0x50, 0x61, 0x72, 0x74,
  0x69, 0x74, 0x69, 0x6f, 0x6e, 0x65, 0x64, 0x43, 0x61, 0x6c, 0x6c, 0x5f,
  0x31, 0x3a, 0x30, 0x31, 0x00, 0x00, 0x00, 0x00, 0x02, 0x00, 0x00, 0x00,
  0x01, 0x00, 0x00, 0x00, 0x01, 0x00, 0x00, 0x00, 0x82, 0xcb, 0xff, 0xff,
  0x00, 0x00, 0x00, 0x01, 0x18, 0x00, 0x00, 0x00, 0x20, 0x00, 0x00, 0x00,
  0x40, 0x00, 0x00, 0x00, 0x22, 0x00, 0x00, 0x00, 0x00, 0x00, 0x00, 0x09,
  0x78, 0x00, 0x00, 0x00, 0x02, 0x00, 0x00, 0x00, 0xff, 0xff, 0xff, 0xff,
  0x01, 0x00, 0x00, 0x00, 0x64, 0xcb, 0xff, 0xff, 0x08, 0x00, 0x00, 0x00,
  0x14, 0x00, 0x00, 0x00, 0x01, 0x00, 0x00, 0x00, 0x80, 0xff, 0xff, 0xff,
  0xff, 0xff, 0xff, 0xff, 0x00, 0x00, 0x00, 0x00, 0x01, 0x00, 0x00, 0x00,
  0x22, 0x76, 0x05, 0x3c, 0x3c, 0x00, 0x00, 0x00, 0x66, 0x75, 0x6e, 0x63,
  0x74, 0x69, 0x6f, 0x6e, 0x61, 0x6c, 0x5f, 0x34, 0x5f, 0x31, 0x2f, 0x64,
  0x65, 0x6e, 0x73, 0x65, 0x5f, 0x39, 0x5f, 0x31, 0x2f, 0x4d, 0x61, 0x74,
  0x4d, 0x75, 0x6c, 0x3b, 0x66, 0x75, 0x6e, 0x63, 0x74, 0x69, 0x6f, 0x6e,
  0x61, 0x6c, 0x5f, 0x34, 0x5f, 0x31, 0x2f, 0x64, 0x65, 0x6e, 0x73, 0x65,
  0x5f, 0x39, 0x5f, 0x31, 0x2f, 0x41, 0x64, 0x64, 0x00, 0x00, 0x00, 0x00,
  0x02, 0x00, 0x00, 0x00, 0x01, 0x00, 0x00, 0x00, 0x01, 0x00, 0x00, 0x00,
  0x22, 0xcc, 0xff, 0xff, 0x00, 0x00, 0x00, 0x01, 0x18, 0x00, 0x00, 0x00,
  0x20, 0x00, 0x00, 0x00, 0x40, 0x00, 0x00, 0x00, 0x21, 0x00, 0x00, 0x00,
  0x00, 0x00, 0x00, 0x09, 0x98, 0x00, 0x00, 0x00, 0x02, 0x00, 0x00, 0x00,
  0xff, 0xff, 0xff, 0xff, 0x80, 0x00, 0x00, 0x00, 0x04, 0xcc, 0xff, 0xff,
  0x08, 0x00, 0x00, 0x00, 0x14, 0x00, 0x00, 0x00, 0x01, 0x00, 0x00, 0x00,
  0x80, 0xff, 0xff, 0xff, 0xff, 0xff, 0xff, 0xff, 0x00, 0x00, 0x00, 0x00,
  0x01, 0x00, 0x00, 0x00, 0xa2, 0x9f, 0x2b, 0x3c, 0x5e, 0x00, 0x00, 0x00,
  0x66, 0x75, 0x6e, 0x63, 0x74, 0x69, 0x6f, 0x6e, 0x61, 0x6c, 0x5f, 0x34,
  0x5f, 0x31, 0x2f, 0x64, 0x65, 0x6e, 0x73, 0x65, 0x5f, 0x38, 0x5f, 0x31,
  0x2f, 0x4d, 0x61, 0x74, 0x4d, 0x75, 0x6c, 0x3b, 0x66, 0x75, 0x6e, 0x63,
  0x74, 0x69, 0x6f, 0x6e, 0x61, 0x6c, 0x5f, 0x34, 0x5f, 0x31, 0x2f, 0x64,
  0x65, 0x6e, 0x73, 0x65, 0x5f, 0x38, 0x5f, 0x31, 0x2f, 0x52, 0x65, 0x6c,
  0x75, 0x3b, 0x66, 0x75, 0x6e, 0x63, 0x74, 0x69, 0x6f, 0x6e, 0x61, 0x6c,
  0x5f, 0x34, 0x5f, 0x31, 0x2f, 0x64, 0x65, 0x6e, 0x73, 0x65, 0x5f, 0x38,
  0x5f, 0x31, 0x2f, 0x42, 0x69, 0x61, 0x73, 0x41, 0x64, 0x64, 0x00, 0x00,
  0x02, 0x00, 0x00, 0x00, 0x01, 0x00, 0x00, 0x00, 0x80, 0x00, 0x00, 0x00,
  0xe2, 0xcc, 0xff, 0xff, 0x00, 0x00, 0x00, 0x01, 0x18, 0x00, 0x00, 0x00,
  0x20, 0x00, 0x00, 0x00, 0x3c, 0x00, 0x00, 0x00, 0x20, 0x00, 0x00, 0x00,
  0x00, 0x00, 0x00, 0x09, 0x68, 0x00, 0x00, 0x00, 0x02, 0x00, 0x00, 0x00,
  0xff, 0xff, 0xff, 0xff, 0x40, 0x00, 0x00, 0x00, 0xc4, 0xcc, 0xff, 0xff,
  0x08, 0x00, 0x00, 0x00, 0x10, 0x00, 0x00, 0x00, 0x01, 0x00, 0x00, 0x00,
  0x80, 0xff, 0xff, 0xff, 0xff, 0xff, 0xff, 0xff, 0x01, 0x00, 0x00, 0x00,
  0x19, 0xe0, 0x60, 0x3c, 0x30, 0x00, 0x00, 0x00, 0x66, 0x75, 0x6e, 0x63,
  0x74, 0x69, 0x6f, 0x6e, 0x61, 0x6c, 0x5f, 0x34, 0x5f, 0x31, 0x2f, 0x67,
  0x6c, 0x6f, 0x62, 0x61, 0x6c, 0x5f, 0x61, 0x76, 0x65, 0x72, 0x61, 0x67,
  0x65, 0x5f, 0x70, 0x6f, 0x6f, 0x6c, 0x69, 0x6e, 0x67, 0x32, 0x64, 0x5f,
  0x34, 0x5f, 0x31, 0x2f, 0x4d, 0x65, 0x61, 0x6e, 0x00, 0x00, 0x00, 0x00,
  0x02, 0x00, 0x00, 0x00, 0x01, 0x00, 0x00, 0x00, 0x40, 0x00, 0x00, 0x00,
  0x72, 0xcd, 0xff, 0xff, 0x00, 0x00, 0x00, 0x01, 0x18, 0x00, 0x00, 0x00,
  0x28, 0x00, 0x00, 0x00, 0x44, 0x00, 0x00, 0x00, 0x1f, 0x00, 0x00, 0x00,
  0x00, 0x00, 0x00, 0x09, 0xf8, 0x00, 0x00, 0x00, 0x04, 0x00, 0x00, 0x00,
  0xff, 0xff, 0xff, 0xff, 0x0c, 0x00, 0x00, 0x00, 0x0c, 0x00, 0x00, 0x00,
  0x40, 0x00, 0x00, 0x00, 0x5c, 0xcd, 0xff, 0xff, 0x08, 0x00, 0x00, 0x00,
  0x10, 0x00, 0x00, 0x00, 0x01, 0x00, 0x00, 0x00, 0x80, 0xff, 0xff, 0xff,
  0xff, 0xff, 0xff, 0xff, 0x01, 0x00, 0x00, 0x00, 0xf4, 0xf5, 0x67, 0x3d,
  0xb8, 0x00, 0x00, 0x00, 0x66, 0x75, 0x6e, 0x63, 0x74, 0x69, 0x6f, 0x6e,
  0x61, 0x6c, 0x5f, 0x34, 0x5f, 0x31, 0x2f, 0x61, 0x63, 0x74, 0x69, 0x76,
